{
  "version": "1.0",
  "truncation": null,
  "padding": null,
  "added_tokens": [
    {
      "id": 0,
      "content": "[UNK]",
      "single_word": false,
      "lstrip": false,
      "rstrip": false,
      "normalized": false,
      "special": true
    }
  ],
  "normalizer": {
    "type": "NFKC"
  },
  "pre_tokenizer": {
    "type": "Metaspace",
    "replacement": "▁",
    "prepend_scheme": "always",
    "split": true
  },
  "post_processor": null,
  "decoder": {
    "type": "Metaspace",
    "replacement": "▁",
    "prepend_scheme": "always",
    "split": true
  },
  "model": {
    "type": "BPE",
    "dropout": null,
    "unk_token": "[UNK]",
    "continuing_subword_prefix": null,
    "end_of_word_suffix": null,
    "fuse_unk": false,
    "byte_fallback": false,
    "ignore_merges": false,
    "vocab": {
      "[UNK]": 0,
      "\"": 1,
      "$": 2,
      "%": 3,
      "&": 4,
      "'": 5,
      "(": 6,
      ")": 7,
      "*": 8,
      "+": 9,
      ",": 10,
      "-": 11,
      ".": 12,
      "/": 13,
      "0": 14,
      "1": 15,
      "2": 16,
      "3": 17,
      "4": 18,
      "5": 19,
      "6": 20,
      "7": 21,
      "8": 22,
      "9": 23,
      ":": 24,
      ";": 25,
      "<": 26,
      "=": 27,
      ">": 28,
      "?": 29,
      "A": 30,
      "B": 31,
      "C": 32,
      "D": 33,
      "E": 34,
      "F": 35,
      "G": 36,
      "H": 37,
      "I": 38,
      "J": 39,
      "K": 40,
      "L": 41,
      "M": 42,
      "N": 43,
      "O": 44,
      "P": 45,
      "Q": 46,
      "R": 47,
      "S": 48,
      "T": 49,
      "U": 50,
      "V": 51,
      "W": 52,
      "X": 53,
      "Y": 54,
      "Z": 55,
      "[": 56,
      "\\": 57,
      "]": 58,
      "^": 59,
      "_": 60,
      "a": 61,
      "b": 62,
      "c": 63,
      "d": 64,
      "e": 65,
      "f": 66,
      "g": 67,
      "h": 68,
      "i": 69,
      "j": 70,
      "k": 71,
      "l": 72,
      "m": 73,
      "n": 74,
      "o": 75,
      "p": 76,
      "q": 77,
      "r": 78,
      "s": 79,
      "t": 80,
      "u": 81,
      "v": 82,
      "w": 83,
      "x": 84,
      "y": 85,
      "z": 86,
      "{": 87,
      "|": 88,
      "}": 89,
      "°": 90,
      "·": 91,
      "Ö": 92,
      "ß": 93,
      "á": 94,
      "â": 95,
      "æ": 96,
      "ç": 97,
      "è": 98,
      "é": 99,
      "í": 100,
      "ö": 101,
      "ü": 102,
      "ā": 103,
      "ī": 104,
      "İ": 105,
      "Ś": 106,
      "ś": 107,
      "ţ": 108,
      "ū": 109,
      "ș": 110,
      "ə": 111,
      "ɦ": 112,
      "ɪ": 113,
      "ɾ": 114,
      "ʊ": 115,
      "ˈ": 116,
      "ː": 117,
      "́": 118,
      "ί": 119,
      "α": 120,
      "δ": 121,
      "θ": 122,
      "ν": 123,
      "ο": 124,
      "π": 125,
      "ς": 126,
      "ό": 127,
      "ँ": 128,
      "ं": 129,
      "ः": 130,
      "अ": 131,
      "आ": 132,
      "इ": 133,
      "ई": 134,
      "उ": 135,
      "ऊ": 136,
      "ऋ": 137,
      "ऍ": 138,
      "ए": 139,
      "ऐ": 140,
      "ऑ": 141,
      "ओ": 142,
      "औ": 143,
      "क": 144,
      "ख": 145,
      "ग": 146,
      "घ": 147,
      "च": 148,
      "छ": 149,
      "ज": 150,
      "झ": 151,
      "ञ": 152,
      "ट": 153,
      "ठ": 154,
      "ड": 155,
      "ढ": 156,
      "ण": 157,
      "त": 158,
      "थ": 159,
      "द": 160,
      "ध": 161,
      "न": 162,
      "प": 163,
      "फ": 164,
      "ब": 165,
      "भ": 166,
      "म": 167,
      "य": 168,
      "र": 169,
      "ल": 170,
      "ळ": 171,
      "व": 172,
      "श": 173,
      "ष": 174,
      "स": 175,
      "ह": 176,
      "़": 177,
      "ा": 178,
      "ि": 179,
      "ी": 180,
      "ु": 181,
      "ू": 182,
      "ृ": 183,
      "े": 184,
      "ै": 185,
      "ॉ": 186,
      "ो": 187,
      "ौ": 188,
      "्": 189,
      "।": 190,
      "०": 191,
      "१": 192,
      "२": 193,
      "३": 194,
      "४": 195,
      "५": 196,
      "६": 197,
      "७": 198,
      "८": 199,
      "९": 200,
      "॰": 201,
      "ঁ": 202,
      "ং": 203,
      "ঃ": 204,
      "অ": 205,
      "আ": 206,
      "ই": 207,
      "ঈ": 208,
      "উ": 209,
      "ঊ": 210,
      "ঋ": 211,
      "এ": 212,
      "ঐ": 213,
      "ও": 214,
      "ঔ": 215,
      "ক": 216,
      "খ": 217,
      "গ": 218,
      "ঘ": 219,
      "ঙ": 220,
      "চ": 221,
      "ছ": 222,
      "জ": 223,
      "ঝ": 224,
      "ঞ": 225,
      "ট": 226,
      "ঠ": 227,
      "ড": 228,
      "ঢ": 229,
      "ণ": 230,
      "ত": 231,
      "থ": 232,
      "দ": 233,
      "ধ": 234,
      "ন": 235,
      "প": 236,
      "ফ": 237,
      "ব": 238,
      "ভ": 239,
      "ম": 240,
      "য": 241,
      "র": 242,
      "ল": 243,
      "শ": 244,
      "ষ": 245,
      "স": 246,
      "হ": 247,
      "়": 248,
      "া": 249,
      "ি": 250,
      "ী": 251,
      "ু": 252,
      "ূ": 253,
      "ৃ": 254,
      "ে": 255,
      "ৈ": 256,
      "ো": 257,
      "ৌ": 258,
      "্": 259,
      "ৎ": 260,
      "০": 261,
      "১": 262,
      "২": 263,
      "৩": 264,
      "৪": 265,
      "৫": 266,
      "৬": 267,
      "৭": 268,
      "৮": 269,
      "৯": 270,
      "ం": 271,
      "ః": 272,
      "అ": 273,
      "ఆ": 274,
      "ఇ": 275,
      "ఈ": 276,
      "ఉ": 277,
      "ఋ": 278,
      "ఎ": 279,
      "ఏ": 280,
      "ఐ": 281,
      "ఒ": 282,
      "ఓ": 283,
      "ఔ": 284,
      "క": 285,
      "ఖ": 286,
      "గ": 287,
      "ఘ": 288,
      "చ": 289,
      "ఛ": 290,
      "జ": 291,
      "ఞ": 292,
      "ట": 293,
      "ఠ": 294,
      "డ": 295,
      "ఢ": 296,
      "ణ": 297,
      "త": 298,
      "థ": 299,
      "ద": 300,
      "ధ": 301,
      "న": 302,
      "ప": 303,
      "ఫ": 304,
      "బ": 305,
      "భ": 306,
      "మ": 307,
      "య": 308,
      "ర": 309,
      "ల": 310,
      "ళ": 311,
      "వ": 312,
      "శ": 313,
      "ష": 314,
      "స": 315,
      "హ": 316,
      "ా": 317,
      "ి": 318,
      "ీ": 319,
      "ు": 320,
      "ూ": 321,
      "ృ": 322,
      "ె": 323,
      "ే": 324,
      "ై": 325,
      "ొ": 326,
      "ో": 327,
      "ౌ": 328,
      "్": 329,
      "ṅ": 330,
      "ṇ": 331,
      "Ṛ": 332,
      "ṣ": 333,
      "ṭ": 334,
      "Ἰ": 335,
      "‌": 336,
      "‍": 337,
      "‎": 338,
      "–": 339,
      "—": 340,
      "‘": 341,
      "’": 342,
      "“": 343,
      "”": 344,
      "†": 345,
      "•": 346,
      "′": 347,
      "‹": 348,
      "›": 349,
      "⁡": 350,
      "₹": 351,
      "↑": 352,
      "−": 353,
      "▁": 354,
      "﻿": 355,
      "an": 356,
      "in": 357,
      "ার": 358,
      "th": 359,
      "on": 360,
      "er": 361,
      "▁क": 362,
      "্র": 363,
      "▁(": 364,
      "য়": 365,
      "▁স": 366,
      "al": 367,
      "▁2": 368,
      "ti": 369,
      "or": 370,
      "▁th": 371,
      "▁I": 372,
      "ar": 373,
      "di": 374,
      "es": 375,
      "en": 376,
      "্য": 377,
      "▁,": 378,
      "▁the": 379,
      "▁.": 380,
      "▁প": 381,
      "▁o": 382,
      "▁स": 383,
      "▁1": 384,
      "▁ব": 385,
      "▁of": 386,
      "▁In": 387,
      "ের": 388,
      "▁म": 389,
      "ed": 390,
      "▁[": 391,
      "▁]": 392,
      "is": 393,
      "▁20": 394,
      "and": 395,
      "▁A": 396,
      "्र": 397,
      "▁Indi": 398,
      "▁प": 399,
      "ार": 400,
      "▁ম": 401,
      "▁ভ": 402,
      "র্": 403,
      "▁C": 404,
      "్ర": 405,
      "at": 406,
      "▁p": 407,
      "ান": 408,
      "▁S": 409,
      "▁ক": 410,
      "as": 411,
      "tion": 412,
      "▁।": 413,
      "▁s": 414,
      "▁২": 415,
      "▁P": 416,
      "▁অ": 417,
      "▁ह": 418,
      "্ত": 419,
      "▁আ": 420,
      "▁ప": 421,
      "▁and": 422,
      "▁India": 423,
      "ারত": 424,
      "it": 425,
      "▁c": 426,
      "▁in": 427,
      "ic": 428,
      "▁ভারত": 429,
      "▁M": 430,
      "▁t": 431,
      "om": 432,
      "▁T": 433,
      "▁भ": 434,
      "িক": 435,
      "సా": 436,
      "re": 437,
      "▁\"": 438,
      "ార": 439,
      "▁ত": 440,
      "▁f": 441,
      "▁अ": 442,
      "▁के": 443,
      "▁b": 444,
      "ent": 445,
      "ें": 446,
      "ాల": 447,
      "्य": 448,
      "▁w": 449,
      "్య": 450,
      "▁এ": 451,
      "▁↑": 452,
      "▁১": 453,
      "ing": 454,
      "ri": 455,
      "▁২০": 456,
      "ারি": 457,
      "▁হ": 458,
      "▁প্র": 459,
      "ou": 460,
      "▁ও": 461,
      "▁a": 462,
      "্ব": 463,
      "▁ন": 464,
      "▁B": 465,
      "▁জ": 466,
      "▁R": 467,
      "▁201": 468,
      "▁উ": 469,
      "00": 470,
      "▁में": 471,
      "▁D": 472,
      "ation": 473,
      "he": 474,
      ".శ": 475,
      "ৃত": 476,
      ".శ.": 477,
      "▁m": 478,
      "▁క": 479,
      "रा": 480,
      "et": 481,
      "సా.శ.": 482,
      "am": 483,
      "▁দ": 484,
      "িত": 485,
      "▁ज": 486,
      "াল": 487,
      "ীয়": 488,
      "र्": 489,
      "রা": 490,
      "ारत": 491,
      "ক্": 492,
      "▁भारत": 493,
      "▁व": 494,
      "le": 495,
      "ন্": 496,
      "ারিখ": 497,
      "▁స": 498,
      "▁তারিখ": 499,
      "▁है": 500,
      "ान": 501,
      "▁সং": 502,
      "▁न": 503,
      "▁•": 504,
      "▁ब": 505,
      "▁·": 506,
      "▁द": 507,
      "▁বি": 508,
      "▁)": 509,
      "▁ర": 510,
      "ol": 511,
      "কে": 512,
      "▁మ": 513,
      "▁19": 514,
      "న్": 515,
      "▁వ": 516,
      "▁H": 517,
      "िक": 518,
      "ur": 519,
      "ver": 520,
      "या": 521,
      "▁N": 522,
      "em": 523,
      "ch": 524,
      "▁భ": 525,
      "▁त": 526,
      "us": 527,
      "াই": 528,
      "्त": 529,
      "▁to": 530,
      "ర్": 531,
      "లో": 532,
      "▁l": 533,
      "ist": 534,
      "▁G": 535,
      "దే": 536,
      "টি": 537,
      "াত": 538,
      "ul": 539,
      "ra": 540,
      "ক্ষ": 541,
      "▁E": 542,
      "য়ে": 543,
      "স্": 544,
      "▁से": 545,
      "దేశ": 546,
      "▁থ": 547,
      "el": 548,
      "స్": 549,
      "▁n": 550,
      "il": 551,
      "ig": 552,
      "▁^": 553,
      "లు": 554,
      "▁e": 555,
      "ని": 556,
      "াম": 557,
      "ది": 558,
      "ों": 559,
      "ge": 560,
      "▁h": 561,
      "▁200": 562,
      "▁औ": 563,
      "▁प्र": 564,
      "▁L": 565,
      "op": 566,
      "ిం": 567,
      "▁The": 568,
      "ion": 569,
      "েশ": 570,
      "েকে": 571,
      "কৃত": 572,
      "গ্র": 573,
      "▁থেকে": 574,
      "▁और": 575,
      "▁শ": 576,
      "▁ప్ర": 577,
      "▁d": 578,
      "ec": 579,
      "ారత": 580,
      "▁২০০": 581,
      "▁3": 582,
      "▁का": 583,
      "▁భారత": 584,
      "ro": 585,
      "বি": 586,
      "ce": 587,
      "ূল": 588,
      "▁J": 589,
      "ాజ": 590,
      "▁W": 591,
      "তি": 592,
      "▁అ": 593,
      "ess": 594,
      "20": 595,
      "▁की": 596,
      ").": 597,
      "ीय": 598,
      "র্ক": 599,
      "▁F": 600,
      "▁O": 601,
      "াহ": 602,
      "ాలు": 603,
      "▁K": 604,
      "্চ": 605,
      "▁చ": 606,
      "ষ্": 607,
      "▁ভারতের": 608,
      "▁U": 609,
      "ly": 610,
      "▁মূল": 611,
      "▁आ": 612,
      "ir": 613,
      "▁ग": 614,
      "▁(సా.శ.": 615,
      "রে": 616,
      "লি": 617,
      "▁রা": 618,
      "ang": 619,
      "▁జ": 620,
      "un": 621,
      "ित": 622,
      "ved": 623,
      "्ष": 624,
      "–సా.శ.": 625,
      "▁re": 626,
      "▁:": 627,
      "ায়": 628,
      "tic": 629,
      "ిక": 630,
      "▁তারিখে": 631,
      "ाल": 632,
      "िया": 633,
      "▁9": 634,
      "▁on": 635,
      "▁আর্ক": 636,
      "াইভ": 637,
      "▁আর্কাইভ": 638,
      "দ্": 639,
      "াব": 640,
      "▁আর্কাইভকৃত": 641,
      "▁को": 642,
      "ना": 643,
      "ডি": 644,
      "ter": 645,
      "▁रा": 646,
      "ity": 647,
      "▁उ": 648,
      "ন্দ": 649,
      "rom": 650,
      "ad": 651,
      "▁গ": 652,
      "গ্রহ": 653,
      "▁ल": 654,
      "ছে": 655,
      "▁য": 656,
      "्व": 657,
      "st": 658,
      "▁న": 659,
      "▁ই": 660,
      "ay": 661,
      "▁or": 662,
      "▁সংগ্রহ": 663,
      "▁সংগ্রহের": 664,
      "ber": 665,
      "াস": 666,
      "im": 667,
      "ment": 668,
      "িল": 669,
      "క్": 670,
      "▁ఉ": 671,
      "न्": 672,
      "▁4": 673,
      "78": 674,
      "్యం": 675,
      "▁২০১": 676,
      "tu": 677,
      "గా": 678,
      "দ্ধ": 679,
      "ాత": 680,
      "ండ": 681,
      "ిన": 682,
      "ता": 683,
      "▁g": 684,
      "▁Indian": 685,
      "▁है।": 686,
      "ve": 687,
      "రి": 688,
      "▁p.": 689,
      "ঙ্": 690,
      "ন্ত": 691,
      "ల్": 692,
      "19": 693,
      "▁सं": 694,
      "▁for": 695,
      "▁इ": 696,
      "um": 697,
      "▁श": 698,
      "id": 699,
      "న్న": 700,
      "ld": 701,
      "্যা": 702,
      "),": 703,
      "ेश": 704,
      "রি": 705,
      "েম": 706,
      "▁from": 707,
      "▁वि": 708,
      "▁ए": 709,
      "▁ভারতীয়": 710,
      "ది.": 711,
      "▁IS": 712,
      "▁Un": 713,
      "p.": 714,
      "ate": 715,
      "ষ্ট": 716,
      "▁|": 717,
      "ला": 718,
      "▁ar": 719,
      "▁202": 720,
      "▁త": 721,
      "▁is": 722,
      "था": 723,
      "▁ఆ": 724,
      "for": 725,
      "▁पर": 726,
      "ons": 727,
      "ac": 728,
      "te": 729,
      "ress": 730,
      "র্ব": 731,
      "▁రాజ": 732,
      "'s": 733,
      "এস": 734,
      "▁by": 735,
      "ub": 736,
      "▁নি": 737,
      "దేశం": 738,
      "्ट": 739,
      "vers": 740,
      "▁As": 741,
      "त्र": 742,
      "BN": 743,
      "▁ISBN": 744,
      "్ట": 745,
      "िस": 746,
      "লে": 747,
      "ak": 748,
      "78-": 749,
      "াদ": 750,
      "ాయ": 751,
      "▁ఇ": 752,
      "▁সম": 753,
      "▁উপ": 754,
      "ia": 755,
      "od": 756,
      "▁र": 757,
      "est": 758,
      "పూ": 759,
      "▁আই": 760,
      "▁এক": 761,
      "্বর": 762,
      "েম্বর": 763,
      "▁978-": 764,
      "ow": 765,
      "▁Ch": 766,
      "200": 767,
      "ary": 768,
      "ंग": 769,
      "ua": 770,
      "ास": 771,
      "ক্ত": 772,
      "▁খ": 773,
      "▁సా": 774,
      "স্ত": 775,
      "িন": 776,
      "্প": 777,
      "కు": 778,
      "త్": 779,
      "ీయ": 780,
      "য়েছে": 781,
      "ঙ্গ": 782,
      "angua": 783,
      "ాన": 784,
      "▁সাহ": 785,
      "పూ.": 786,
      "ew": 787,
      "ory": 788,
      "ff": 789,
      "क्ष": 790,
      "▁as": 791,
      "ial": 792,
      "orld": 793,
      "▁pp.": 794,
      "এন": 795,
      "ంత": 796,
      "ति": 797,
      "▁राज": 798,
      "থা": 799,
      "ধ্য": 800,
      "ड़": 801,
      "ড়": 802,
      "ধান": 803,
      "▁Ar": 804,
      "ep": 805,
      "inal": 806,
      "50": 807,
      "▁১৯": 808,
      ")।": 809,
      "গু": 810,
      "ద్": 811,
      "▁ফ": 812,
      "▁জন": 813,
      "స్త": 814,
      "এসবি": 815,
      "os": 816,
      "1-": 817,
      "▁র": 818,
      "▁করে": 819,
      "▁রাজ": 820,
      "s,": 821,
      "ut": 822,
      "versity": 823,
      "తి": 824,
      "▁V": 825,
      "▁य": 826,
      "ot": 827,
      "ther": 828,
      "▁r": 829,
      "10": 830,
      "▁orig": 831,
      "og": 832,
      "▁পৃ": 833,
      "▁অন": 834,
      "ational": 835,
      "िय": 836,
      "কার": 837,
      "ঞ্চ": 838,
      "তা": 839,
      "ত্ত": 840,
      "▁বা": 841,
      "री": 842,
      "▁च": 843,
      "▁सा": 844,
      "ায": 845,
      "িয়": 846,
      "ুন": 847,
      "▁–": 848,
      "▁সর": 849,
      "▁জাত": 850,
      "our": 851,
      "▁हैं": 852,
      "▁চ": 853,
      "▁బ": 854,
      "▁সাল": 855,
      "oun": 856,
      "न्द": 857,
      "▁wh": 858,
      "▁be": 859,
      "ct": 860,
      "du": 861,
      "▁original": 862,
      "০০": 863,
      "▁৩": 864,
      "▁আইএসবি": 865,
      "▁সাহায": 866,
      "▁আইএসবিএন": 867,
      "▁সাহায্য": 868,
      "oc": 869,
      "ाद": 870,
      "▁पु": 871,
      "▁भारतीय": 872,
      "over": 873,
      "পি": 874,
      "▁గ": 875,
      "▁হয়": 876,
      "ले": 877,
      "▁10": 878,
      "ith": 879,
      "▁कर": 880,
      "ার্": 881,
      "▁বিশ": 882,
      "▁-": 883,
      "iversity": 884,
      "লা": 885,
      "ীন": 886,
      "▁২০০৭": 887,
      "ষ্ট্র": 888,
      "▁st": 889,
      "▁Press": 890,
      "▁7": 891,
      "ने": 892,
      "▁ने": 893,
      "chi": 894,
      "rie": 895,
      "প্র": 896,
      "ులు": 897,
      "▁পৃ.": 898,
      "ain": 899,
      "ry": 900,
      "ab": 901,
      "▁(20": 902,
      "▁2011": 903,
      "istory": 904,
      "s.": 905,
      "स्": 906,
      "বং": 907,
      "ంగ": 908,
      "▁१": 909,
      "▁হি": 910,
      "ন্ত্র": 911,
      "13": 912,
      "ear": 913,
      "▁University": 914,
      "ish": 915,
      "ong": 916,
      "dia": 917,
      "▁এবং": 918,
      "con": 919,
      "titu": 920,
      "ast": 921,
      "0-": 922,
      "▁5": 923,
      "म्": 924,
      "all": 925,
      "18": 926,
      "াধ": 927,
      "▁ডি": 928,
      "▁Ret": 929,
      "ించ": 930,
      "मन": 931,
      "मा": 932,
      "▁di": 933,
      "▁{": 934,
      "rieved": 935,
      "▁Retrieved": 936,
      "sh": 937,
      "ను": 938,
      "రు": 939,
      "▁মধ্য": 940,
      "▁জাতীয়": 941,
      "ाष": 942,
      "▁{{": 943,
      "▁}": 944,
      "ere": 945,
      "টার": 946,
      "▁উদ্ধ": 947,
      "▁উদ্ধৃত": 948,
      "▁}}": 949,
      "▁199": 950,
      "▁&": 951,
      "ুর": 952,
      "▁An": 953,
      "র্থ": 954,
      "▁अभ": 955,
      "▁భారతదేశం": 956,
      "ন্দ্র": 957,
      "ust": 958,
      "47": 959,
      "rit": 960,
      "▁ति": 961,
      "▁8": 962,
      "▁हि": 963,
      "F)": 964,
      "১৯": 965,
      "▁৫": 966,
      "▁వి": 967,
      "▁Hin": 968,
      "ap": 969,
      "ాష": 970,
      "▁6": 971,
      "্যান": 972,
      "▁দেশ": 973,
      "▁বিশ্ব": 974,
      "▁it": 975,
      "art": 976,
      "▁with": 977,
      "▁History": 978,
      "▁Archi": 979,
      "्ट्र": 980,
      "li": 981,
      "ort": 982,
      "ము": 983,
      "স্ট": 984,
      "▁২০০৮": 985,
      "ঞ্চল": 986,
      "▁Archived": 987,
      "gh": 988,
      "▁अन": 989,
      "▁an": 990,
      "▁(P": 991,
      "ical": 992,
      "ev": 993,
      "ాన్": 994,
      "▁ద": 995,
      "▁సం": 996,
      "গুলি": 997,
      "▁En": 998,
      "थि": 999,
      "▁18": 1000,
      "arg": 1001,
      "17": 1002,
      "opul": 1003,
      "▁৪": 1004,
      "▁(২": 1005,
      "▁సామ": 1006,
      "overn": 1007,
      "▁উদ্ধৃতি": 1008,
      "ich": 1009,
      "ers": 1010,
      "्या": 1011,
      "outh": 1012,
      "▁ex": 1013,
      "▁was": 1014,
      "up": 1015,
      "মা": 1016,
      "ুক্ত": 1017,
      "্যার": 1018,
      "▁ভা": 1019,
      "▁ভারতে": 1020,
      "ubl": 1021,
      "िग": 1022,
      "ember": 1023,
      "onstitu": 1024,
      "26": 1025,
      "ूल": 1026,
      "DF)": 1027,
      "టి": 1028,
      "పు": 1029,
      "▁ఒ": 1030,
      "▁পর": 1031,
      "▁\"T": 1032,
      "▁స్": 1033,
      "▁రాజ్యం": 1034,
      "▁(PDF)": 1035,
      "▁v": 1036,
      "ass": 1037,
      "▁langua": 1038,
      "av": 1039,
      "▁एक": 1040,
      "▁तिथि": 1041,
      "omm": 1042,
      "▁2014": 1043,
      "কা": 1044,
      "িটার": 1045,
      "▁హ": 1046,
      "▁পরি": 1047,
      "▁এই": 1048,
      "▁সংস্": 1049,
      "ক্ষা": 1050,
      "ాయి": 1051,
      "▁একটি": 1052,
      "र्व": 1053,
      "ens": 1054,
      "overnment": 1055,
      "▁are": 1056,
      "▁पुरा": 1057,
      "▁तिथि:": 1058,
      "▁2007": 1059,
      "ংশ": 1060,
      "সং": 1061,
      "সি": 1062,
      "০-": 1063,
      "ిత": 1064,
      "▁శ": 1065,
      "ence": 1066,
      "ges": 1067,
      "ok": 1068,
      "से": 1069,
      "end": 1070,
      "tern": 1071,
      "▁978-0-": 1072,
      "তম": 1073,
      "াগ": 1074,
      "ంలో": 1075,
      "▁अभिग": 1076,
      "▁ভাষ": 1077,
      "▁अभिगमन": 1078,
      "har": 1079,
      "ana": 1080,
      "ans": 1081,
      "ies": 1082,
      "▁he": 1083,
      "In": 1084,
      "कार": 1085,
      "▁मूल": 1086,
      "▁जा": 1087,
      "ाषा": 1088,
      "ill": 1089,
      "ud": 1090,
      "সেম্বর": 1091,
      "యా": 1092,
      "▁হয়েছে": 1093,
      "ింది.": 1094,
      "క్ష": 1095,
      "▁ডিসেম্বর": 1096,
      "inist": 1097,
      "िल": 1098,
      "▁;": 1099,
      "▁World": 1100,
      "ates": 1101,
      "15": 1102,
      "বস্": 1103,
      "ధిక": 1104,
      "▁ধ": 1105,
      "▁করা": 1106,
      "ార్": 1107,
      "▁(సా.శ.పూ.": 1108,
      "▁সালে": 1109,
      "12": 1110,
      "iv": 1111,
      "▁26": 1112,
      "ford": 1113,
      "ts": 1114,
      "▁৯": 1115,
      "▁পা": 1116,
      "्च": 1117,
      "▁इस": 1118,
      "त्त": 1119,
      "opulation": 1120,
      "cal": 1121,
      "োগ": 1122,
      "▁প্যার": 1123,
      "్రాజ": 1124,
      "ানা": 1125,
      "ান্ত": 1126,
      "▁প্রধান": 1127,
      "ামিটার": 1128,
      "▁রাষ্ট্র": 1129,
      "▁সরকার": 1130,
      "▁సామ్రాజ": 1131,
      "▁প্যারামিটার": 1132,
      "xford": 1133,
      "▁St": 1134,
      "omp": 1135,
      "देश": 1136,
      "हा": 1137,
      "▁हो": 1138,
      "▁India\"": 1139,
      "▁भी": 1140,
      "▁तथा": 1141,
      "▁राज्य": 1142,
      "▁हैं।": 1143,
      "dition": 1144,
      "▁no": 1145,
      "me": 1146,
      "▁New": 1147,
      "..": 1148,
      "তে": 1149,
      "ত্র": 1150,
      "্ড": 1151,
      "ైన": 1152,
      "▁ট": 1153,
      "▁ఎ": 1154,
      "▁অর্থ": 1155,
      "▁India's": 1156,
      "icial": 1157,
      "▁जन": 1158,
      "▁జాత": 1159,
      "▁হয়।": 1160,
      "लेख": 1161,
      "16": 1162,
      "ine": 1163,
      "का": 1164,
      "बर": 1165,
      "ष्ट्र": 1166,
      "ीन": 1167,
      "ेत्र": 1168,
      "▁पुरालेख": 1169,
      "মি": 1170,
      "াচ": 1171,
      "్చ": 1172,
      "্রি": 1173,
      "▁పే": 1174,
      "ండి": 1175,
      "cl": 1176,
      "ik": 1177,
      "▁at": 1178,
      "▁con": 1179,
      "▁सम": 1180,
      "▁हु": 1181,
      "▁नि": 1182,
      "▁South": 1183,
      "000": 1184,
      "14": 1185,
      "ती": 1186,
      "▁k": 1187,
      "conom": 1188,
      "▁पुरालेखित": 1189,
      "ంగా": 1190,
      "ంది.": 1191,
      "కి": 1192,
      "ూడ": 1193,
      "▁৭": 1194,
      "▁স্ব": 1195,
      "▁14": 1196,
      "▁বৃ": 1197,
      "▁কে": 1198,
      "▁কো": 1199,
      "▁রাজ্য": 1200,
      "▁which": 1201,
      "स्त": 1202,
      "▁12": 1203,
      "ated": 1204,
      "▁Oxford": 1205,
      "▁हिन्द": 1206,
      "ंद": 1207,
      "▁क्ष": 1208,
      "▁that": 1209,
      "▁मु": 1210,
      "ati": 1211,
      "▁un": 1212,
      "তিক": 1213,
      "ভি": 1214,
      "ীর": 1215,
      "ুল": 1216,
      "వి": 1217,
      "▁దేశ": 1218,
      "▁13": 1219,
      "▁অঞ্চল": 1220,
      "▁আগ": 1221,
      "▁has": 1222,
      "াবে": 1223,
      "ాయి.": 1224,
      "▁কেন্দ্র": 1225,
      "ंड": 1226,
      "ज़": 1227,
      "धिक": 1228,
      "▁भाषा": 1229,
      "▁वर्": 1230,
      "aj": 1231,
      "onstitution": 1232,
      "calf": 1233,
      "cy": 1234,
      "er,": 1235,
      "▁16": 1236,
      "▁25": 1237,
      "lo": 1238,
      "ली": 1239,
      "etcalf": 1240,
      "▁क्षेत्र": 1241,
      "জাত": 1242,
      "ূর্ব": 1243,
      "ంట": 1244,
      "▁৮": 1245,
      "▁সে": 1246,
      "ism": 1247,
      "▁মহ": 1248,
      "▁২১": 1249,
      "▁অজ": 1250,
      "▁ওয়ে": 1251,
      "▁ఉన్న": 1252,
      "লেখ": 1253,
      "als": 1254,
      "rid": 1255,
      "olog": 1256,
      "gion": 1257,
      "वा": 1258,
      "ृत": 1259,
      "▁ध": 1260,
      "▁स्": 1261,
      "्रे": 1262,
      "▁15": 1263,
      "ublic": 1264,
      "ous": 1265,
      "err": 1266,
      "▁17": 1267,
      "আই": 1268,
      "াজ": 1269,
      "▁फ": 1270,
      "▁२": 1271,
      "▁ল": 1272,
      "▁বৈ": 1273,
      "▁নাম": 1274,
      "ন্ধ": 1275,
      "▁(২০০": 1276,
      "▁సామ్రాజ్యం": 1277,
      "▁జాతీయ": 1278,
      "▁অজানা": 1279,
      "▁ওয়েব": 1280,
      "hi": 1281,
      "ance": 1282,
      "ov": 1283,
      "ंत्र": 1284,
      "क्त": 1285,
      "धान": 1286,
      "िम": 1287,
      "IT": 1288,
      "▁its": 1289,
      "ame": 1290,
      "মে": 1291,
      "রণ": 1292,
      "ীতি": 1293,
      "্ষ": 1294,
      "తర": 1295,
      "▁Y": 1296,
      "▁সঙ্গ": 1297,
      "ారు": 1298,
      "▁ప్రా": 1299,
      "్ట్ర": 1300,
      "ాష్ట్ర": 1301,
      "भा": 1302,
      "▁Metcalf": 1303,
      "amb": 1304,
      "▁राष्ट्र": 1305,
      "ore": 1306,
      "▁Th": 1307,
      "▁(200": 1308,
      "ाम": 1309,
      "ction": 1310,
      "কি": 1311,
      "সে": 1312,
      "ির": 1313,
      "োব": 1314,
      "ంద": 1315,
      "▁৬": 1316,
      "▁স্": 1317,
      "▁সাম": 1318,
      "్రీ": 1319,
      "▁২০২": 1320,
      "స్థ": 1321,
      "ash": 1322,
      "ome": 1323,
      "lp": 1324,
      "▁Asia": 1325,
      "▁help": 1326,
      "ian": 1327,
      "ost": 1328,
      "ते": 1329,
      "द्": 1330,
      "▁सर": 1331,
      "▁Ind": 1332,
      "▁\"In": 1333,
      "▁India:": 1334,
      "au": 1335,
      "দি": 1336,
      "দের": 1337,
      "দেশ": 1338,
      "না": 1339,
      "েক্ষা": 1340,
      "దీ": 1341,
      "్ల": 1342,
      "▁ల": 1343,
      "্রু": 1344,
      "র্ত": 1345,
      "▁చె": 1346,
      "▁২০১১": 1347,
      "▁মধ্যে": 1348,
      "▁অর্থন": 1349,
      "ोग": 1350,
      "▁ख": 1351,
      "▁पू": 1352,
      "▁National": 1353,
      "▁\"The": 1354,
      "y,": 1355,
      "▁196": 1356,
      "-0": 1357,
      "▁Pro": 1358,
      "iss": 1359,
      "▁सरकार": 1360,
      "▁Re": 1361,
      "ru": 1362,
      "ারণ": 1363,
      "য়া": 1364,
      "▁ব্য": 1365,
      "▁ক্র": 1366,
      "▁অক্": 1367,
      "্বী": 1368,
      "তিহ": 1369,
      "▁রয়েছে": 1370,
      "ount": 1371,
      "ER": 1372,
      "▁Comm": 1373,
      "error": 1374,
      "ंध": 1375,
      "िण": 1376,
      "ुर": 1377,
      "▁India.": 1378,
      "ture": 1379,
      "ंग्रे": 1380,
      "iti": 1381,
      "ook": 1382,
      "ect": 1383,
      "▁pro": 1384,
      "EF": 1385,
      "1,": 1386,
      "a,": 1387,
      "ढ़": 1388,
      "এফ": 1389,
      "রিক": 1390,
      "ৈতিক": 1391,
      "ంచ": 1392,
      "తం": 1393,
      "బడ": 1394,
      "ాబ": 1395,
      "▁किया": 1396,
      "es,": 1397,
      "▁মে": 1398,
      "র্ম": 1399,
      "▁Cent": 1400,
      "▁জুন": 1401,
      "ন্ন": 1402,
      "▁రాష్ట్ర": 1403,
      "▁వ్య": 1404,
      "▁तक": 1405,
      "–సా.శ.పూ.": 1406,
      "▁যু": 1407,
      "▁विश": 1408,
      "▁ఆర్": 1409,
      "ত্তর": 1410,
      "▁আগস্ট": 1411,
      "ci": 1412,
      "▁error": 1413,
      "▁CIT": 1414,
      "▁targ": 1415,
      "et:": 1416,
      "EREF": 1417,
      "▁error:": 1418,
      "▁CITEREF": 1419,
      "▁target:": 1420,
      "▁978-1-": 1421,
      "के": 1422,
      "ूप": 1423,
      "▁अप": 1424,
      "ril": 1425,
      "▁region": 1426,
      ".;": 1427,
      "23": 1428,
      "ord": 1429,
      "ridge": 1430,
      "ard": 1431,
      "▁Constitution": 1432,
      "tics": 1433,
      "o-": 1434,
      "pp": 1435,
      "নি": 1436,
      "েল": 1437,
      "చ్చ": 1438,
      "వా": 1439,
      "వు": 1440,
      "▁లో": 1441,
      "▁০-": 1442,
      "ork": 1443,
      "▁বর্": 1444,
      "▁sub": 1445,
      "▁১১": 1446,
      "▁হল": 1447,
      "▁নে": 1448,
      "িতে": 1449,
      "igh": 1450,
      "ంత్ర": 1451,
      "cess": 1452,
      "ून": 1453,
      "▁ad": 1454,
      "▁गया": 1455,
      "ern": 1456,
      "▁Hindu": 1457,
      "age": 1458,
      "ave": 1459,
      "ure": 1460,
      "an,": 1461,
      "eral": 1462,
      "ult": 1463,
      "irst": 1464,
      "e,": 1465,
      "नी": 1466,
      "▁देश": 1467,
      "क्षिण": 1468,
      "জি": 1469,
      "ভূ": 1470,
      "োট": 1471,
      "ట్ట": 1472,
      "▁ఈ": 1473,
      "ond": 1474,
      "ক্ষি": 1475,
      "▁ను": 1476,
      "▁উপেক্ষা": 1477,
      "▁Government": 1478,
      "ensus": 1479,
      "fn": 1480,
      "tin": 1481,
      "▁sfn": 1482,
      "ag": 1483,
      "ath": 1484,
      "▁Camb": 1485,
      "▁language": 1486,
      "जा": 1487,
      "▁मे": 1488,
      "▁cl": 1489,
      "र्म": 1490,
      "▁दक्षिण": 1491,
      "0.": 1492,
      "qu": 1493,
      "ited": 1494,
      "▁ch": 1495,
      "form": 1496,
      "▁2019": 1497,
      "মান": 1498,
      "జీ": 1499,
      "నా": 1500,
      "లి": 1501,
      "వం": 1502,
      "ాస": 1503,
      "▁কর": 1504,
      "িকে": 1505,
      "▁উত্তর": 1506,
      "▁కా": 1507,
      "▁కూడ": 1508,
      "▁భారతదేశ": 1509,
      "ల్ల": 1510,
      "োবর": 1511,
      "্বীপ": 1512,
      "▁प्रा": 1513,
      "▁प्रदेश": 1514,
      "▁30": 1515,
      "▁उत्त": 1516,
      "▁पुरालेखित।": 1517,
      "ex": 1518,
      "ph": 1519,
      "per": 1520,
      "year": 1521,
      "ign": 1522,
      "ely": 1523,
      "▁2021": 1524,
      "ata": 1525,
      "oh": 1526,
      "▁28": 1527,
      "ural": 1528,
      "▁Langua": 1529,
      "ope": 1530,
      "▁था": 1531,
      "ations": 1532,
      "ाना": 1533,
      "▁Chin": 1534,
      "▁Cambridge": 1535,
      "ঞ্": 1536,
      "বে": 1537,
      "সম": 1538,
      "ীত": 1539,
      "্ম": 1540,
      "పాల": 1541,
      "▁সি": 1542,
      "ানু": 1543,
      "▁were": 1544,
      "▁এর": 1545,
      "▁১৭": 1546,
      "▁প্রতি": 1547,
      "▁প্রস্ত": 1548,
      "▁দে": 1549,
      "িত্র": 1550,
      "▁భారతీయ": 1551,
      "িল্প": 1552,
      "ద్ధ": 1553,
      "▁করে।": 1554,
      "পিডি": 1555,
      "মাণ": 1556,
      "ক্ষিণ": 1557,
      "res": 1558,
      "ीं": 1559,
      "esh": 1560,
      "▁१९": 1561,
      "edi": 1562,
      "ric": 1563,
      "fficial": 1564,
      "eb": 1565,
      "if": 1566,
      "▁Ap": 1567,
      "tim": 1568,
      "▁Population": 1569,
      "▁cent": 1570,
      "ission": 1571,
      "wo": 1572,
      "कर": 1573,
      "নের": 1574,
      "প্": 1575,
      "যুক্ত": 1576,
      "যোগ": 1577,
      "డి": 1578,
      "డు": 1579,
      "▁ড": 1580,
      "▁ని": 1581,
      "▁దేశం": 1582,
      "▁(১৯": 1583,
      "য়ারি": 1584,
      "▁23": 1585,
      "▁पा": 1586,
      "▁মু": 1587,
      "▁ভূ": 1588,
      "▁১৩": 1589,
      "▁বিজ": 1590,
      "▁మొ": 1591,
      "స్క": 1592,
      "ষ্ঠ": 1593,
      "odern": 1594,
      "▁साथ": 1595,
      "▁হিন্দ": 1596,
      "▁స్థ": 1597,
      "▁हिन्दी": 1598,
      "द्ध": 1599,
      "এফ)": 1600,
      "port": 1601,
      "ug": 1602,
      "▁le": 1603,
      "▁22": 1604,
      "▁have": 1605,
      "त्": 1606,
      "दी": 1607,
      "वि": 1608,
      "▁सब": 1609,
      "ice": 1610,
      "िका": 1611,
      "3.": 1612,
      "row": 1613,
      "we": 1614,
      "▁$": 1615,
      "out": 1616,
      "1.": 1617,
      "ক্র": 1618,
      "খ্যা": 1619,
      "ছিল": 1620,
      "টোবর": 1621,
      "দী": 1622,
      "বাহ": 1623,
      "াপ": 1624,
      "োল": 1625,
      "త్ర": 1626,
      "ధాన": 1627,
      "ার্চ": 1628,
      "▁অব": 1629,
      "▁১০": 1630,
      "amil": 1631,
      "ক্ষণ": 1632,
      "▁২০০৯": 1633,
      "স্তান": 1634,
      "াধীন": 1635,
      "বস্থা": 1636,
      "▁বৃহ": 1637,
      "1)": 1638,
      "led": 1639,
      "uc": 1640,
      "▁off": 1641,
      "्रा": 1642,
      "▁Mar": 1643,
      "▁संस्": 1644,
      "▁यह": 1645,
      "▁विश्व": 1646,
      "▁सबसे": 1647,
      "▁April": 1648,
      ",000": 1649,
      "▁ter": 1650,
      "ound": 1651,
      "eng": 1652,
      "▁pl": 1653,
      "▁part": 1654,
      "▁India,": 1655,
      "▁\"C": 1656,
      "ओं": 1657,
      "मान": 1658,
      "हु": 1659,
      "ीप": 1660,
      "ेख": 1661,
      "▁कु": 1662,
      "▁कार": 1663,
      "र्थ": 1664,
      "und": 1665,
      "▁लि": 1666,
      "গত": 1667,
      "దు": 1668,
      "ధ్య": 1669,
      "్మ": 1670,
      "▁ঘ": 1671,
      "▁সা": 1672,
      "▁সর্ব": 1673,
      "▁పా": 1674,
      "▁১২": 1675,
      "▁కే": 1676,
      "ালয়": 1677,
      "▁రై": 1678,
      "▁ము": 1679,
      "ర్వ": 1680,
      "▁শিল্প": 1681,
      "▁అధిక": 1682,
      "▁গণ": 1683,
      "▁ইউ": 1684,
      "াদেশ": 1685,
      "▁অন্যান": 1686,
      "▁ভাষা": 1687,
      "▁ప్రాంత": 1688,
      "▁অক্টোবর": 1689,
      "▁నుండి": 1690,
      "▁অন্যান্য": 1691,
      "den": 1692,
      "ef": 1693,
      "ed.": 1694,
      "▁world": 1695,
      "▁nor": 1696,
      "▁Tim": 1697,
      "▁2010": 1698,
      "गर": 1699,
      "यु": 1700,
      "िर": 1701,
      "▁ड": 1702,
      "▁2012": 1703,
      "▁2016": 1704,
      "▁जिस": 1705,
      "▁पूर्व": 1706,
      "▁Minist": 1707,
      "▁rel": 1708,
      "▁form": 1709,
      "28": 1710,
      "land": 1711,
      "ज्य": 1712,
      "▁par": 1713,
      "▁Rep": 1714,
      "sp": 1715,
      "ough": 1716,
      "7.": 1717,
      "ip": 1718,
      "চ্চ": 1719,
      "ভেম্বর": 1720,
      "শিয়": 1721,
      "েস": 1722,
      "ంబ": 1723,
      "నే": 1724,
      "▁পশ": 1725,
      "▁ক্ষ": 1726,
      "িকা": 1727,
      "▁১৬": 1728,
      "▁নভেম্বর": 1729,
      "▁দক্ষিণ": 1730,
      "uly": 1731,
      "దేశ్": 1732,
      "elop": 1733,
      "▁ప్రధాన": 1734,
      "ছে।": 1735,
      "ত্তম": 1736,
      "▁বিশ্বের": 1737,
      "evelop": 1738,
      "▁সংস্কৃত": 1739,
      "ారు.": 1740,
      "ঞ্জ": 1741,
      "प्त": 1742,
      "सा": 1743,
      "▁24": 1744,
      "▁मह": 1745,
      "▁sp": 1746,
      "iter": 1747,
      "ell": 1748,
      "ild": 1749,
      "▁2006": 1750,
      "▁स्थ": 1751,
      "istan": 1752,
      "tical": 1753,
      "tein": 1754,
      "oll": 1755,
      "oci": 1756,
      "ib": 1757,
      "to": 1758,
      "▁Al": 1759,
      "▁197": 1760,
      "▁Press.": 1761,
      "cc": 1762,
      "son": 1763,
      "▁Is": 1764,
      "▁Ro": 1765,
      "▁\"India": 1766,
      "द्य": 1767,
      "वरी": 1768,
      "▁सि": 1769,
      "▁बाद": 1770,
      "लाई": 1771,
      "conomic": 1772,
      "ise": 1773,
      "▁2018": 1774,
      "▁Dec": 1775,
      "une": 1776,
      "2-": 1777,
      "24": 1778,
      "ach": 1779,
      "করণ": 1780,
      "থান": 1781,
      "াড়": 1782,
      "েত্র": 1783,
      "্ঞ": 1784,
      "১-": 1785,
      "తో": 1786,
      "పా": 1787,
      "ప్": 1788,
      "▁—": 1789,
      "ann": 1790,
      "▁(পিডি": 1791,
      "্যের": 1792,
      "▁মা": 1793,
      "▁১৪": 1794,
      "ury": 1795,
      "▁తే": 1796,
      "▁সম্প": 1797,
      "▁১৯৯": 1798,
      "స్తాన్": 1799,
      "▁ఒరి": 1800,
      "క్షి": 1801,
      "▁প্রস্তাব": 1802,
      "స్కృ": 1803,
      "▁বৃহত্তম": 1804,
      "▁(পিডিএফ)": 1805,
      "ese": 1806,
      "▁bec": 1807,
      "▁2009": 1808,
      ")\"": 1809,
      "05": 1810,
      "ai": 1811,
      "ध्य": 1812,
      "ोल": 1813,
      "▁घ": 1814,
      "▁थ": 1815,
      "▁कि": 1816,
      "▁स्व": 1817,
      "▁अधिक": 1818,
      "▁जु": 1819,
      "▁दिस": 1820,
      "oli": 1821,
      "▁राष्ट्रीय": 1822,
      "ant": 1823,
      "▁10.": 1824,
      "ram": 1825,
      "▁Se": 1826,
      "emp": 1827,
      "33": 1828,
      "ile": 1829,
      "lish": 1830,
      "ral": 1831,
      "▁Con": 1832,
      "▁Sch": 1833,
      "fter": 1834,
      "thor": 1835,
      "▁K.": 1836,
      "▁languages": 1837,
      "पा": 1838,
      "मी": 1839,
      "वं": 1840,
      "কারি": 1841,
      "ভা": 1842,
      "শাস": 1843,
      "িম": 1844,
      "ীল": 1845,
      "ূহ": 1846,
      "ఖ్య": 1847,
      "జిన": 1848,
      "టు": 1849,
      "ప్ర": 1850,
      "మైన": 1851,
      "ాని": 1852,
      "ియా": 1853,
      "ూస": 1854,
      "▁পূর্ব": 1855,
      "▁মার্চ": 1856,
      "▁অধ": 1857,
      "▁১৫": 1858,
      "▁হয়ে": 1859,
      "▁প্রজাত": 1860,
      "▁है,": 1861,
      "▁बा": 1862,
      "▁द्व": 1863,
      "ement": 1864,
      "▁শতা": 1865,
      "▁|ac": 1866,
      "▁रूप": 1867,
      "▁অনু": 1868,
      "ুরু": 1869,
      "্যান্ড": 1870,
      "গুলির": 1871,
      "▁অর্থনৈতিক": 1872,
      "▁मेला": 1873,
      "▁শতাংশ": 1874,
      "▁|access": 1875,
      "▁(19": 1876,
      "▁cons": 1877,
      "rad": 1878,
      "ank": 1879,
      "anu": 1880,
      "ange": 1881,
      "ingh": 1882,
      "▁Oct": 1883,
      "▁Commission": 1884,
      "tinent": 1885,
      "54": 1886,
      "ind": 1887,
      "▁sy": 1888,
      "▁not": 1889,
      "▁July": 1890,
      "-8": 1891,
      "▁comp": 1892,
      "की": 1893,
      "ख्य": 1894,
      "टी": 1895,
      "▁ई": 1896,
      "▁मान": 1897,
      "्री": 1898,
      "▁sh": 1899,
      "▁2017": 1900,
      "िस्त": 1901,
      "▁अनु": 1902,
      "▁जुलाई": 1903,
      "air": 1904,
      "▁all": 1905,
      "riti": 1906,
      "▁198": 1907,
      "anc": 1908,
      "aste": 1909,
      "▁United": 1910,
      "ণি": 1911,
      "তার": 1912,
      "ত্য": 1913,
      "ন।": 1914,
      "বর্ত": 1915,
      "ভাগ": 1916,
      "ভাবে": 1917,
      "ল্": 1918,
      "াক": 1919,
      "াট": 1920,
      "িব": 1921,
      "৭৮": 1922,
      "గు": 1923,
      "ట్": 1924,
      "డ్": 1925,
      "య్య": 1926,
      "వస్థ": 1927,
      "ష్": 1928,
      "▁লেখ": 1929,
      "র্ণ": 1930,
      "▁Pl": 1931,
      "ారం": 1932,
      "ాల్": 1933,
      "▁১৮": 1934,
      "▁కు": 1935,
      "▁కాల": 1936,
      "▁দু": 1937,
      "িত)": 1938,
      "▁বিচ": 1939,
      "▁మధ్య": 1940,
      "▁1950": 1941,
      "దిన": 1942,
      "াহিন": 1943,
      "ాలు,": 1944,
      "త్వ": 1945,
      "▁বাং": 1946,
      "ার্ক": 1947,
      "▁భారతదేశంలో": 1948,
      "▁దక్షి": 1949,
      "▁హిం": 1950,
      "illion": 1951,
      "▁সঙ্গে": 1952,
      "ভূমি": 1953,
      "▁తేదీ": 1954,
      "▁ఒరిజిన": 1955,
      "▁প্রস্তাবিত)": 1956,
      "▁దక్షిణ": 1957,
      "▁ఒరిజినల్": 1958,
      "▁June": 1959,
      "ober": 1960,
      "▁ओ": 1961,
      "▁27": 1962,
      "▁अंग्रे": 1963,
      "▁बहु": 1964,
      "ाली": 1965,
      "▁शास": 1966,
      "▁cont": 1967,
      "▁वर्ष": 1968,
      "▁class": 1969,
      "▁उत्तर": 1970,
      "▁October": 1971,
      "continent": 1972,
      "bal": 1973,
      "▁'": 1974,
      "▁29": 1975,
      "▁Am": 1976,
      "▁Del": 1977,
      "also": 1978,
      "5.": 1979,
      "▁year": 1980,
      "▁2003": 1981,
      "▁been": 1982,
      "ah": 1983,
      "ल्": 1984,
      "es.": 1985,
      "▁per": 1986,
      "▁भू": 1987,
      "▁गु": 1988,
      "▁Ass": 1989,
      "▁संस्क": 1990,
      "िस्तान": 1991,
      "-d": 1992,
      "aw": 1993,
      "i,": 1994,
      "টেম্বর": 1995,
      "দ্র": 1996,
      "নে": 1997,
      "ে।": 1998,
      "లం": 1999,
      "ాగ": 2000,
      "▁య": 2001,
      "▁also": 2002,
      "ারা": 2003,
      "▁সু": 2004,
      "ater": 2005,
      "▁এশিয়": 2006,
      "▁প্রাচ": 2007,
      "▁নয়": 2008,
      "▁জুল": 2009,
      "▁উৎ": 2010,
      "▁উল্": 2011,
      "▁కో": 2012,
      "▁క్రీ": 2013,
      "▁দ্ব": 2014,
      "uring": 2015,
      "▁2004": 2016,
      "▁చూస": 2017,
      "▁ఉత్": 2018,
      "▁ఉంది.": 2019,
      "రిత్ర": 2020,
      "thern": 2021,
      "▁সরকারি": 2022,
      "ন্ত্রী": 2023,
      "▁సంస్కృ": 2024,
      "▁ఒక": 2025,
      "▁స్వ": 2026,
      "▁ধর্ম": 2027,
      "▁పేజీ": 2028,
      "▁স্বাধীন": 2029,
      "▁সেপ্": 2030,
      "ంద్ర": 2031,
      "তিহাস": 2032,
      "▁পশ্চ": 2033,
      "▁తేదీ:": 2034,
      "▁জুলাই": 2035,
      "▁చూసిన": 2036,
      "▁పేజీని": 2037,
      "▁সেপ্টেম্বর": 2038,
      "▁us": 2039,
      "▁Aug": 2040,
      "▁Sans": 2041,
      "ept": 2042,
      "▁August": 2043,
      "▁Sansk": 2044,
      "ke": 2045,
      "ature": 2046,
      "ision": 2047,
      "बंध": 2048,
      "श्च": 2049,
      "ष्": 2050,
      "ैन": 2051,
      "ince": 2052,
      "▁Sh": 2053,
      "etwe": 2054,
      "▁नाम": 2055,
      "▁40": 2056,
      "ियों": 2057,
      "ज़ी": 2058,
      "▁धर्म": 2059,
      "ountry": 2060,
      "etween": 2061,
      "ya": 2062,
      "▁Joh": 2063,
      "▁government": 2064,
      "iz": 2065,
      "▁other": 2066,
      "▁2020": 2067,
      "▁cit": 2068,
      "▁\"A": 2069,
      "ide": 2070,
      "2.": 2071,
      "▁al": 2072,
      "▁2024": 2073,
      "ology": 2074,
      "ashm": 2075,
      "evelopment": 2076,
      "▁Sanskrit": 2077,
      "30": 2078,
      "57": 2079,
      "কাল": 2080,
      "থম": 2081,
      "পাত": 2082,
      "পতি": 2083,
      "বন্ধ": 2084,
      "লব": 2085,
      "ুট": 2086,
      "্দ": 2087,
      "ణా": 2088,
      "తు": 2089,
      "మా": 2090,
      "రా": 2091,
      "ర్య": 2092,
      "శం": 2093,
      "▁গ্র": 2094,
      "erv": 2095,
      "▁সহ": 2096,
      "ar,": 2097,
      "▁ব্যা": 2098,
      "్రమ": 2099,
      "్రి": 2100,
      "ানি": 2101,
      "▁Briti": 2102,
      "রাষ্ট্র": 2103,
      "▁1947": 2104,
      "ema": 2105,
      "▁భాష": 2106,
      "ক্ষর": 2107,
      "▁చరిత్ర": 2108,
      "umber": 2109,
      "ক্তি": 2110,
      "▁জনসং": 2111,
      "▁রাজন": 2112,
      "▁অন্য": 2113,
      "াধিক": 2114,
      "▁ఉన్నాయి.": 2115,
      "▁(১৯৯": 2116,
      "্ঞান": 2117,
      "▁লেখা": 2118,
      "▁প্রাচীন": 2119,
      "▁উল্লেখ": 2120,
      "▁British": 2121,
      "ive": 2122,
      "uis": 2123,
      "रे": 2124,
      "सं": 2125,
      "िव": 2126,
      "िश": 2127,
      "▁छ": 2128,
      "▁सू": 2129,
      "ारा": 2130,
      "▁into": 2131,
      "▁दो": 2132,
      "▁उप": 2133,
      "▁Ash": 2134,
      "ड़ा": 2135,
      "म्बर": 2136,
      "▁अन्य": 2137,
      "▁Eng": 2138,
      "▁मुख्य": 2139,
      "ace": 2140,
      "ally": 2141,
      "▁first": 2142,
      "▁Eur": 2143,
      "▁Delhi": 2144,
      "eptember": 2145,
      "29": 2146,
      "▁1.": 2147,
      "▁Pak": 2148,
      "▁2013": 2149,
      "2,": 2150,
      "34": 2151,
      "ty": 2152,
      "uch": 2153,
      "▁ri": 2154,
      "▁mar": 2155,
      "act": 2156,
      "▁Hindi": 2157,
      "▁Language": 2158,
      "58": 2159,
      "ari": 2160,
      "▁September": 2161,
      "%)": 2162,
      "ब्": 2163,
      "ोक": 2164,
      "▁May": 2165,
      "▁ab": 2166,
      "ament": 2167,
      "▁Republic": 2168,
      "श्चिम": 2169,
      "gan": 2170,
      "se": 2171,
      "▁Census": 2172,
      "জ্য": 2173,
      "ণী": 2174,
      "প্ত": 2175,
      "পূর্ব": 2176,
      "ভারত": 2177,
      "শন": 2178,
      "েব": 2179,
      "০১": 2180,
      "పంచ": 2181,
      "ెండ": 2182,
      "▁ఏ": 2183,
      "▁es": 2184,
      "ered": 2185,
      "্রিক": 2186,
      "য়ন": 2187,
      "▁বই": 2188,
      "▁বহ": 2189,
      "▁but": 2190,
      "▁between": 2191,
      "▁হার": 2192,
      "্বে": 2193,
      "▁সংস": 2194,
      "▁మార్": 2195,
      "ulture": 2196,
      "▁गण": 2197,
      "▁২০১৯": 2198,
      "ঙ্ক": 2199,
      "▁নিবন্ধ": 2200,
      "থাপ": 2201,
      "ద్ద": 2202,
      "▁জন্য": 2203,
      "▁সালের": 2204,
      "বস্থ": 2205,
      "সমূহ": 2206,
      "▁বিচার": 2207,
      "াহিনী": 2208,
      "ার্কিন": 2209,
      "▁ఉత్తర": 2210,
      "ire": 2211,
      "▁Act": 2212,
      "▁se": 2213,
      "▁more": 2214,
      "▁Em": 2215,
      "ven": 2216,
      "any": 2217,
      "▁1,": 2218,
      "▁tra": 2219,
      "▁ag": 2220,
      "▁Rel": 2221,
      "cycl": 2222,
      "▁syst": 2223,
      "मु": 2224,
      "हर": 2225,
      "िप": 2226,
      "ोड़": 2227,
      "▁their": 2228,
      "▁...": 2229,
      "▁मार": 2230,
      "▁मध्य": 2231,
      "ारी": 2232,
      "▁जो": 2233,
      "माण": 2234,
      "▁जाता": 2235,
      "▁States": 2236,
      "▁फ़": 2237,
      "11": 2238,
      "9.": 2239,
      "bot": 2240,
      "▁Stein": 2241,
      "igion": 2242,
      "48": 2243,
      "enn": 2244,
      "▁Pp.": 2245,
      "▁York": 2246,
      "▁Comp": 2247,
      "emb": 2248,
      "▁2023": 2249,
      "▁this": 2250,
      "eneral": 2251,
      "ongress": 2252,
      "▁Encycl": 2253,
      "▁subcontinent": 2254,
      "▁John": 2255,
      "ँच": 2256,
      "ख्या": 2257,
      "जी": 2258,
      "टे": 2259,
      "में": 2260,
      "००": 2261,
      "ংরে": 2262,
      "গণ": 2263,
      "পু": 2264,
      "পে": 2265,
      "বেশ": 2266,
      "বাদ": 2267,
      "ম্": 2268,
      "সভা": 2269,
      "োর্": 2270,
      "కై": 2271,
      "మి": 2272,
      "ిన్న": 2273,
      "ిల్ల": 2274,
      "ుక": 2275,
      "▁সাধ": 2276,
      "tive": 2277,
      "▁পর্ব": 2278,
      "▁বছ": 2279,
      "▁मै": 2280,
      "ানে": 2281,
      "▁আর": 2282,
      "▁పార": 2283,
      "▁তার": 2284,
      "▁প্রা": 2285,
      "▁প্রযুক্ত": 2286,
      "▁প্রথম": 2287,
      "▁కొ": 2288,
      "িত।": 2289,
      "▁विक": 2290,
      "ন্ট": 2291,
      "▁మత": 2292,
      "న్ని": 2293,
      "▁వచ్చ": 2294,
      "▁শাস": 2295,
      "▁ప్రపంచ": 2296,
      "▁చే": 2297,
      "ায়ু": 2298,
      "ालय": 2299,
      "▁যুক্ত": 2300,
      "▁ইতিহাস": 2301,
      "न्न": 2302,
      "ন্তর্": 2303,
      "▁संघ": 2304,
      "্যাক": 2305,
      "▁খ্রি": 2306,
      "▁यु": 2307,
      "▁-এ": 2308,
      "▁৯৭৮": 2309,
      "author": 2310,
      "▁చెయ్య": 2311,
      "▁खाना": 2312,
      "▁যুদ্ধ": 2313,
      "▁కూడా": 2314,
      "▁হিন্দু": 2315,
      "▁కేంద్ర": 2316,
      "▁అధికార": 2317,
      "▁প্রজাতন্ত্র": 2318,
      "▁পশ্চিম": 2319,
      "▁మార్గ": 2320,
      "▁system": 2321,
      "▁সাধারণ": 2322,
      "▁৯৭৮-": 2323,
      "▁చెయ్యబడ": 2324,
      "25": 2325,
      "98": 2326,
      "ashmir": 2327,
      "36": 2328,
      "9-": 2329,
      "now": 2330,
      "▁Q": 2331,
      "▁21": 2332,
      "▁Intern": 2333,
      "cri": 2334,
      "ood": 2335,
      "▁Inform": 2336,
      "▁2015": 2337,
      "ack": 2338,
      "▁978-0-19": 2339,
      "▁English": 2340,
      ".\"": 2341,
      ".in": 2342,
      "les": 2343,
      "albot": 2344,
      "▁2008": 2345,
      "ourn": 2346,
      "lobal": 2347,
      "eop": 2348,
      "कि": 2349,
      "किस्तान": 2350,
      "तर": 2351,
      "रब": 2352,
      "सी": 2353,
      "सार": 2354,
      "erg": 2355,
      "ffair": 2356,
      "▁चु": 2357,
      "▁साम": 2358,
      "▁राज्यों": 2359,
      "▁हुई": 2360,
      "▁निर्": 2361,
      "ंद्र": 2362,
      "book": 2363,
      "estern": 2364,
      "▁dec": 2365,
      "▁For": 2366,
      "dh": 2367,
      "odi": 2368,
      "t,": 2369,
      "ue": 2370,
      "vi": 2371,
      "▁number": 2372,
      "▁Asian": 2373,
      "▁official": 2374,
      "▁December": 2375,
      "anuary": 2376,
      "ote": 2377,
      "ss": 2378,
      "জন": 2379,
      "দ্বীপ": 2380,
      "বল": 2381,
      "বাস": 2382,
      "লার": 2383,
      "লাদেশ": 2384,
      "াশ": 2385,
      "েষ": 2386,
      "েলা": 2387,
      "০.": 2388,
      "త్య": 2389,
      "దూ": 2390,
      "వే": 2391,
      "ిమ": 2392,
      "▁ঐ": 2393,
      "▁డ": 2394,
      "▁2.": 2395,
      "▁ব্রি": 2396,
      "▁মান": 2397,
      "▁মেশ": 2398,
      "▁আন্দ": 2399,
      "▁పరి": 2400,
      "▁জানু": 2401,
      "00)": 2402,
      "▁సి": 2403,
      "▁మహ": 2404,
      "টির": 2405,
      "ింది": 2406,
      "▁జనా": 2407,
      "▁গঠ": 2408,
      "▁গা": 2409,
      "▁উপক": 2410,
      "িনে": 2411,
      "▁ফলে": 2412,
      "స్తు": 2413,
      "ంగ్ల": 2414,
      "১৯-": 2415,
      "▁పేరు": 2416,
      "clud": 2417,
      "▁কেন্দ্রীয়": 2418,
      "▁ওয়েব্যাক": 2419,
      "▁সঙ্গীত": 2420,
      "▁স্থাপ": 2421,
      "▁ব্যবস্থা": 2422,
      "▁వ్యవస్థ": 2423,
      "▁ఆర్కై": 2424,
      "▁দেখ": 2425,
      "াড়া": 2426,
      "ానికి": 2427,
      "▁సంస్కృతి": 2428,
      "ংরেজি": 2429,
      "eople": 2430,
      "▁মেশিনে": 2431,
      "▁జనాభ": 2432,
      "▁ఆర్కైవు": 2433,
      "74": 2434,
      "▁Dy": 2435,
      "▁Har": 2436,
      "▁during": 2437,
      "ower": 2438,
      "argest": 2439,
      "56": 2440,
      "file": 2441,
      "oin": 2442,
      "काल": 2443,
      "दान": 2444,
      "मिल": 2445,
      "रो": 2446,
      "रवरी": 2447,
      "ाग": 2448,
      "▁ऑ": 2449,
      "▁Sp": 2450,
      "▁Modern": 2451,
      "▁अग": 2452,
      "▁अम": 2453,
      "्यव": 2454,
      "▁Development": 2455,
      "▁बढ़": 2456,
      "▁दिया": 2457,
      "▁Gu": 2458,
      "▁सेना": 2459,
      "▁Lond": 2460,
      "▁do": 2461,
      "▁January": 2462,
      "▁समय": 2463,
      "▁हुआ": 2464,
      "▁लिए": 2465,
      "▁years": 2466,
      "▁citation": 2467,
      "▁London": 2468,
      "7,": 2469,
      "9,": 2470,
      "90": 2471,
      "96": 2472,
      "inor": 2473,
      "▁over": 2474,
      "▁pri": 2475,
      "▁exp": 2476,
      "▁Times": 2477,
      "▁Soci": 2478,
      "▁two": 2479,
      "inguis": 2480,
      "▁liter": 2481,
      "▁Ministry": 2482,
      "▁Pakistan": 2483,
      "46": 2484,
      "52": 2485,
      "ted": 2486,
      "▁0.": 2487,
      "▁Dik": 2488,
      "raph": 2489,
      "shit": 2490,
      "ledge": 2491,
      "▁Dikshit": 2492,
      "rin": 2493,
      "▁im": 2494,
      "▁Public": 2495,
      "▁Talbot": 2496,
      "▁ele": 2497,
      "▁Qu": 2498,
      "93": 2499,
      "ण्": 2500,
      "सम": 2501,
      "िन": 2502,
      "alth": 2503,
      "▁मा": 2504,
      "▁पार": 2505,
      "▁पश्चिम": 2506,
      "▁\"H": 2507,
      "▁केंद्र": 2508,
      "▁most": 2509,
      "▁जून": 2510,
      "▁न्या": 2511,
      "▁प्रति": 2512,
      "ियाँ": 2513,
      "नाव": 2514,
      "berg": 2515,
      "▁एवं": 2516,
      "क्षा": 2517,
      "ose": 2518,
      "ocial": 2519,
      "ublish": 2520,
      "▁पाकिस्तान": 2521,
      "▁दिसम्बर": 2522,
      "▁classical": 2523,
      "▁tradition": 2524,
      "rop": 2525,
      "ঁচ": 2526,
      "চিত্র": 2527,
      "ণ্ড": 2528,
      "বহ": 2529,
      "ম্প": 2530,
      "রো": 2531,
      "াকা": 2532,
      "োক": 2533,
      "োম": 2534,
      "োর": 2535,
      "৫১": 2536,
      "৫৬": 2537,
      "ం:": 2538,
      "ంధ": 2539,
      "ణి": 2540,
      "దాయ": 2541,
      "మే": 2542,
      "రణ": 2543,
      "ావ": 2544,
      "ుగ": 2545,
      "▁ట": 2546,
      "▁en": 2547,
      "▁লা": 2548,
      "▁It": 2549,
      "▁বাহিনী": 2550,
      "▁মার্কিন": 2551,
      "్రం": 2552,
      "▁పు": 2553,
      "▁Mus": 2554,
      "▁Tamil": 2555,
      "ాలలో": 2556,
      "▁দশ": 2557,
      "ালি": 2558,
      "ক্ষম": 2559,
      "স্থ": 2560,
      "েশন": 2561,
      "▁ప్రజ": 2562,
      "বিদ": 2563,
      "▁జన": 2564,
      "ায়।": 2565,
      "▁যদি": 2566,
      "▁ইন্": 2567,
      "క్క": 2568,
      "র্বাচ": 2569,
      "▁రాజవం": 2570,
      "▁নির্বাচ": 2571,
      "▁ఇతర": 2572,
      "▁সাহিত": 2573,
      "▁দেশের": 2574,
      "▁ভাষায়": 2575,
      "ান্ত্রিক": 2576,
      "▁ఎన్న": 2577,
      "▁সামরিক": 2578,
      "ాబ్": 2579,
      "ultural": 2580,
      "যোগ্য": 2581,
      "▁రైలు": 2582,
      "▁ক্ষেত্র": 2583,
      "▁Europe": 2584,
      "▁সংসদ": 2585,
      "ిల్లీ": 2586,
      "▁বছর": 2587,
      "▁International": 2588,
      "▁জানুয়ারি": 2589,
      "97": 2590,
      "▁comm": 2591,
      "▁BC": 2592,
      "▁Data": 2593,
      "राज्य": 2594,
      "fore": 2595,
      "80": 2596,
      "day": 2597,
      "mon": 2598,
      "▁j": 2599,
      "▁Cl": 2600,
      "▁Congress": 2601,
      "▁caste": 2602,
      "ree": 2603,
      "▁after": 2604,
      "▁state": 2605,
      "conomy": 2606,
      "ournal": 2607,
      "inguistic": 2608,
      "ali": 2609,
      "▁Affair": 2610,
      "▁Rout": 2611,
      "ety": 2612,
      "▁Official": 2613,
      "▁res": 2614,
      "▁Anth": 2615,
      "▁Routledge": 2616,
      "ंप": 2617,
      "क्": 2618,
      "ज्": 2619,
      "तंत्र": 2620,
      "हीं": 2621,
      "ेल": 2622,
      "▁ऊ": 2623,
      "▁सी": 2624,
      "ased": 2625,
      "tions": 2626,
      "▁Pres": 2627,
      "▁\"P": 2628,
      "▁जल": 2629,
      "▁जी": 2630,
      "र्ष": 2631,
      "▁ब्र": 2632,
      "▁land": 2633,
      "▁लोक": 2634,
      "ड़ी": 2635,
      "▁Press,": 2636,
      "स्था": 2637,
      "▁1998": 2638,
      "▁Indo-": 2639,
      "▁CITEREFS": 2640,
      "▁became": 2641,
      "▁थी": 2642,
      "▁द्वारा": 2643,
      "▁अंग्रेज़ी": 2644,
      "▁शासन": 2645,
      "▁सूच": 2646,
      "▁मार्च": 2647,
      "▁फ़रवरी": 2648,
      "▁Dyson": 2649,
      "-7": 2650,
      "wart": 2651,
      "zberg": 2652,
      "▁x": 2653,
      "▁ti": 2654,
      "▁(2": 2655,
      "▁than": 2656,
      "▁Bh": 2657,
      "▁Economic": 2658,
      "▁Schwart": 2659,
      "▁Schwartzberg": 2660,
      "a.": 2661,
      "der": 2662,
      "tor": 2663,
      "▁/": 2664,
      "eds.": 2665,
      "▁population": 2666,
      "▁\"N": 2667,
      "▁On": 2668,
      "ograph": 2669,
      "▁northern": 2670,
      "ries": 2671,
      "▁Bud": 2672,
      "▁name": 2673,
      "imal": 2674,
      "▁March": 2675,
      "▁10.10": 2676,
      "ছাড়া": 2677,
      "তান্ত্রিক": 2678,
      "নিক": 2679,
      "মন্ত্রী": 2680,
      "শীল": 2681,
      "সাবে": 2682,
      "েক": 2683,
      "৩-": 2684,
      "ఢిల్లీ": 2685,
      "తంత్ర": 2686,
      "భు": 2687,
      "రం": 2688,
      "లా": 2689,
      "ూర్": 2690,
      "ెద్ద": 2691,
      "য়ো": 2692,
      "▁পার": 2693,
      "▁বে": 2694,
      "ান্": 2695,
      "▁কাল": 2696,
      "▁অতি": 2697,
      "▁অবস্থ": 2698,
      "▁co": 2699,
      "▁Man": 2700,
      "িক্ষ": 2701,
      "▁এপ্র": 2702,
      "▁এছাড়া": 2703,
      "▁উদ্": 2704,
      "▁বিস্ত": 2705,
      "▁వం": 2706,
      "▁వా": 2707,
      "▁వే": 2708,
      "াইল": 2709,
      "াত্র": 2710,
      "igi": 2711,
      "▁শত": 2712,
      "▁ప్రదేశ్": 2713,
      "▁ప్రభు": 2714,
      "▁అయ": 2715,
      "▁From": 2716,
      "ిక్": 2717,
      "▁నే": 2718,
      "క్కు": 2719,
      "▁ఉప": 2720,
      "দ্ধি": 2721,
      "▁రాజ్య": 2722,
      "్టీ": 2723,
      "ড়ে": 2724,
      "গুল": 2725,
      "▁ফুট": 2726,
      "▁বাণি": 2727,
      "▁గు": 2728,
      "▁হিসাবে": 2729,
      "ించిన": 2730,
      "ించింది.": 2731,
      "▁disp": 2732,
      "▁দেশে": 2733,
      "▁পরী": 2734,
      "▁পর্য": 2735,
      "▁পরমাণ": 2736,
      "▁శా": 2737,
      "▁Centre": 2738,
      "▁যুগ": 2739,
      "▁করতে": 2740,
      "▁స్థాన": 2741,
      "▁పాకి": 2742,
      "▁ప్రాంతాలు": 2743,
      "শাসিত": 2744,
      "▁বাংলাদেশ": 2745,
      "▁హిందూ": 2746,
      "▁স্বাধীনতা": 2747,
      "▁জনসংখ্যা": 2748,
      "▁উল্লেখযোগ্য": 2749,
      "▁పార్టీ": 2750,
      "▁প্রযুক্তি": 2751,
      "▁చెయ్యబడింది": 2752,
      "▁উপকূল": 2753,
      "▁যদিও": 2754,
      "▁రాజవంశం": 2755,
      "▁সাহিত্য": 2756,
      "month": 2757,
      "▁এপ্রিল": 2758,
      "▁ফুটবল": 2759,
      "▁বাণিজ্য": 2760,
      "▁পরমাণু": 2761,
      "94": 2762,
      "oth": 2763,
      "एं": 2764,
      "जन": 2765,
      "दा": 2766,
      "शिया": 2767,
      "ील": 2768,
      "ीस": 2769,
      "▁या": 2770,
      "arli": 2771,
      "▁Singh": 2772,
      "▁sup": 2773,
      "▁includ": 2774,
      "▁Mu": 2775,
      "ाने": 2776,
      "▁बना": 2777,
      "▁had": 2778,
      "▁प्रमु": 2779,
      "▁लग": 2780,
      "▁एशिया": 2781,
      "▁अन्त": 2782,
      "धिकार": 2783,
      "ities": 2784,
      "▁territ": 2785,
      "▁कार्य": 2786,
      "ed.).": 2787,
      "्यवस्था": 2788,
      "▁प्रमुख": 2789,
      "\".": 2790,
      "cre": 2791,
      "rans": 2792,
      "▁there": 2793,
      "▁such": 2794,
      "▁Res": 2795,
      "▁36": 2796,
      "umm": 2797,
      ".c": 2798,
      "▁end": 2799,
      "▁app": 2800,
      "▁Beng": 2801,
      "athema": 2802,
      "40": 2803,
      "8.": 2804,
      "ks": 2805,
      "▁Col": 2806,
      "▁M.": 2807,
      "▁Ram": 2808,
      "▁hum": 2809,
      "▁2005": 2810,
      "▁Kashmir": 2811,
      "epend": 2812,
      "fl": 2813,
      "mund": 2814,
      "ron": 2815,
      "▁ro": 2816,
      "ins": 2817,
      "▁(1,": 2818,
      "isation": 2819,
      "▁Poli": 2820,
      "lear": 2821,
      "thermund": 2822,
      "cience": 2823,
      "ंबर": 2824,
      "चल": 2825,
      "च्च": 2826,
      "चीन": 2827,
      "णा": 2828,
      "तिक": 2829,
      "थान": 2830,
      "पू": 2831,
      "प्र": 2832,
      "मंत्र": 2833,
      "रु": 2834,
      "सि": 2835,
      "ोर्": 2836,
      "arly": 2837,
      "▁out": 2838,
      "▁समा": 2839,
      "▁Af": 2840,
      "▁पं": 2841,
      "▁पह": 2842,
      "▁S.": 2843,
      "reat": 2844,
      "urr": 2845,
      "▁आध": 2846,
      "ticle": 2847,
      "▁one": 2848,
      "▁रह": 2849,
      "िये": 2850,
      "▁हैं,": 2851,
      "िल्": 2852,
      "▁इसके": 2853,
      "ंदिर": 2854,
      "▁था।": 2855,
      "युक्त": 2856,
      "▁भूम": 2857,
      "ण्ड": 2858,
      "gov": 2859,
      "org": 2860,
      "▁me": 2861,
      "ourt": 2862,
      "▁estim": 2863,
      "embly": 2864,
      "7-": 2865,
      "ced": 2866,
      "rou": 2867,
      "ংগ্র": 2868,
      "এর": 2869,
      "ওয়": 2870,
      "কল": 2871,
      "দান": 2872,
      "পর": 2873,
      "মহ": 2874,
      "রক্ষণ": 2875,
      "লী": 2876,
      "সল": 2877,
      "ূর্ণ": 2878,
      "্লি": 2879,
      "২-": 2880,
      "২১": 2881,
      "৫০": 2882,
      "కా": 2883,
      "గి": 2884,
      "ీన": 2885,
      "ుకు": 2886,
      "ెల": 2887,
      "▁লি": 2888,
      "on-": 2889,
      "▁মোট": 2890,
      "్రా": 2891,
      "్రె": 2892,
      "▁since": 2893,
      "▁২৫": 2894,
      "▁Prad": 2895,
      "▁\"M": 2896,
      "▁\"O": 2897,
      "▁Be": 2898,
      "▁উই": 2899,
      "▁দল": 2900,
      "ালা": 2901,
      "▁సిం": 2902,
      "▁రెండ": 2903,
      "াইট": 2904,
      "টিশ": 2905,
      "▁শক্তি": 2906,
      "বিধান": 2907,
      "–సా.శ.19": 2908,
      "–సా.శ.13": 2909,
      "–సా.శ.18": 2910,
      "▁যা": 2911,
      "▁সময়": 2912,
      "▁আইন": 2913,
      "▁খেলা": 2914,
      "▁ফেব": 2915,
      "▁জনপ্র": 2916,
      "▁৩১": 2917,
      "▁হিম": 2918,
      "▁হিসে": 2919,
      "▁কেন্দ্রশাসিত": 2920,
      "কিস্তান": 2921,
      "্রুয়ারি": 2922,
      "▁অর্থনীতি": 2923,
      "▁ক্রিকে": 2924,
      "▁ఆర్ధిక": 2925,
      "▁దేశంలో": 2926,
      "▁మొద": 2927,
      "ক্রান্ত": 2928,
      "▁সম্পর্ক": 2929,
      "▁York:": 2930,
      "▁পর্বতম": 2931,
      "▁ব্রিটিশ": 2932,
      "▁జనాభా": 2933,
      "▁ক্ষেত্রে": 2934,
      "▁Pradesh": 2935,
      "▁ফেব্রুয়ারি": 2936,
      "▁জনপ্রিয়": 2937,
      "minist": 2938,
      "na": 2939,
      "tt": 2940,
      "ised": 2941,
      "ics": 2942,
      "▁R.": 2943,
      "▁modern": 2944,
      "▁),": 2945,
      "▁He": 2946,
      "emoc": 2947,
      "ulke": 2948,
      "ident": 2949,
      "▁(2018": 2950,
      "cient": 2951,
      "▁BCE": 2952,
      "igious": 2953,
      "emocra": 2954,
      "aus": 2955,
      "nd": 2956,
      "ves": 2957,
      "▁up": 2958,
      "▁sec": 2959,
      "▁ind": 2960,
      "ft": 2961,
      "ob": 2962,
      "टन": 2963,
      "योग": 2964,
      "वन": 2965,
      "वाद": 2966,
      "शास": 2967,
      "सद": 2968,
      "ोर": 2969,
      "▁Ag": 2970,
      "as,": 2971,
      "▁Minor": 2972,
      "▁अरब": 2973,
      "rib": 2974,
      "▁बी": 2975,
      "▁दे": 2976,
      "▁देख": 2977,
      "olic": 2978,
      "chn": 2979,
      "▁edition": 2980,
      "▁Feb": 2981,
      "न्द्र": 2982,
      "▁करने": 2983,
      "▁देशों": 2984,
      "विधान": 2985,
      "uclear": 2986,
      "▁कुल": 2987,
      "lands": 2988,
      "▁स्वतंत्र": 2989,
      "▁अनुसार": 2990,
      "▁संस्कृत": 2991,
      "▁अगस्त": 2992,
      "▁न्याया": 2993,
      "atics": 2994,
      "ution": 2995,
      "eration": 2996,
      "ite": 2997,
      "▁Union": 2998,
      "▁See": 2999,
      "▁doi": 3000,
      "▁Buddh": 3001,
      "iness": 3002,
      "▁te": 3003,
      "▁Raj": 3004,
      "▁million": 3005,
      "ures": 3006,
      "usiness": 3007,
      "iron": 3008,
      "▁Chand": 3009,
      "ajor": 3010,
      "▁गणराज्य": 3011,
      "21": 3012,
      "▁(eds.": 3013,
      "▁3,": 3014,
      "ortal": 3015,
      "ative": 3016,
      "▁Central": 3017,
      "1):": 3018,
      "▁Commissioner": 3019,
      "crip": 3020,
      "▁Quote": 3021,
      "roup": 3022,
      "▁\"Official": 3023,
      "ban": 3024,
      "fe": 3025,
      "yy": 3026,
      "▁﻿": 3027,
      "▁ra": 3028,
      "▁50": 3029,
      "▁\"W": 3030,
      "▁am": 3031,
      "▁B.": 3032,
      "old": 3033,
      "▁Kar": 3034,
      "▁2025": 3035,
      "harat": 3036,
      "▁term": 3037,
      ".৮": 3038,
      "3,": 3039,
      "IC": 3040,
      "आई": 3041,
      "जरा": 3042,
      "ञान": 3043,
      "त्य": 3044,
      "पाल": 3045,
      "पुर": 3046,
      "फ़": 3047,
      "बी": 3048,
      "श्": 3049,
      "हास": 3050,
      "िट": 3051,
      "ैल": 3052,
      "খ্য": 3053,
      "গর": 3054,
      "গোল": 3055,
      "চল": 3056,
      "ত্": 3057,
      "ত্ব": 3058,
      "ন্য": 3059,
      "পাল": 3060,
      "পরি": 3061,
      "ফোর্": 3062,
      "বন": 3063,
      "বার": 3064,
      "ভাব": 3065,
      "মন": 3066,
      "শি": 3067,
      "ষণ": 3068,
      "ীম": 3069,
      "৩৪": 3070,
      "৪)।": 3071,
      "৬-": 3072,
      "గ్": 3073,
      "చే": 3074,
      "తా": 3075,
      "పతి": 3076,
      "ఫ్": 3077,
      "మె": 3078,
      "యన్": 3079,
      "రో": 3080,
      "ీర్": 3081,
      "ుల": 3082,
      "ెంగ": 3083,
      "ోర్": 3084,
      "▁রি": 3085,
      "▁ఢిల్లీ": 3086,
      "ারী": 3087,
      "▁कई": 3088,
      "▁সূ": 3089,
      "dian": 3090,
      "▁मंदिर": 3091,
      "▁মাল": 3092,
      "▁কর্ত": 3093,
      "▁২২": 3094,
      "▁২৪": 3095,
      "▁২৮": 3096,
      "▁২৯": 3097,
      "▁ही": 3098,
      "▁আজ": 3099,
      "▁আদ": 3100,
      "▁আন": 3101,
      "▁పాల": 3102,
      "ాలను": 3103,
      "▁এটি": 3104,
      "▁নদী": 3105,
      "▁জয়": 3106,
      "▁উচ্চ": 3107,
      "ৃত্য": 3108,
      "▁కార": 3109,
      "▁కలి": 3110,
      "▁দি": 3111,
      "र्ण": 3112,
      "▁సభ": 3113,
      "▁সংবিধান": 3114,
      "▁नहीं": 3115,
      "▁बन": 3116,
      "▁दश": 3117,
      "▁বিভি": 3118,
      "▁तमिल": 3119,
      "▁long": 3120,
      "▁प्रधान": 3121,
      "▁అతి": 3122,
      "ায়ী": 3123,
      "ाला": 3124,
      "াব্দ": 3125,
      "▁उत्": 3126,
      "▁ইন্দ": 3127,
      "▁ইংরেজি": 3128,
      "▁২০১৩": 3129,
      "▁২০১৬": 3130,
      "▁২০১৮": 3131,
      "▁संविधान": 3132,
      "▁|n": 3133,
      "▁पर्य": 3134,
      "▁নির্": 3135,
      "▁ఇది": 3136,
      "▁रहा": 3137,
      "ंग्": 3138,
      "▁సాం": 3139,
      "तिहास": 3140,
      "ड़े": 3141,
      "ద్వ": 3142,
      "duction": 3143,
      "రువ": 3144,
      "▁সংস্থা": 3145,
      "▁সংস্করণ": 3146,
      "ిత్ర": 3147,
      "▁প্রধানমন্ত্রী": 3148,
      "▁রাষ্ট্রপতি": 3149,
      "▁जनसं": 3150,
      "▁हुए": 3151,
      "▁কোন": 3152,
      "▁भाषाओं": 3153,
      "▁লোক": 3154,
      "क्ति": 3155,
      "▁২০২১": 3156,
      "ruary": 3157,
      "▁अप्र": 3158,
      "▁गया।": 3159,
      "▁प्राप्त": 3160,
      "పాలిత": 3161,
      "ద్ధి": 3162,
      "▁ঘট": 3163,
      "▁সংস্কৃতি": 3164,
      "ildli": 3165,
      "द्योग": 3166,
      "ప్ప": 3167,
      "বর্তী": 3168,
      "▁এশিয়ার": 3169,
      "▁উৎস": 3170,
      "▁క్రీడ": 3171,
      "▁রাজনৈতিক": 3172,
      "▁विकास": 3173,
      "▁వచ్చింది.": 3174,
      "▁শাসন": 3175,
      "▁যুক্তরাষ্ট্র": 3176,
      "▁খ্রিষ্ট": 3177,
      "▁కేంద్రపాలిత": 3178,
      "▁चुनाव": 3179,
      "াশ্ম": 3180,
      "▁ঐতিহ": 3181,
      "▁Society": 3182,
      "▁ইন্ডি": 3183,
      "క్కువ": 3184,
      "मंत्री": 3185,
      "▁पंजा": 3186,
      "ংগ্রেস": 3187,
      "▁ক্রিকেট": 3188,
      "▁February": 3189,
      "▁বিভিন্ন": 3190,
      "▁जनसंख्या": 3191,
      "til": 3192,
      "▁At": 3193,
      "atus": 3194,
      "▁some": 3195,
      "▁Languages": 3196,
      "▁north": 3197,
      "ule": 3198,
      "vision": 3199,
      "orth": 3200,
      "▁11": 3201,
      "▁Main": 3202,
      "▁2022": 3203,
      "wood": 3204,
      "▁Assembly": 3205,
      "▁Act,": 3206,
      "▁time": 3207,
      ".org": 3208,
      "5–": 3209,
      "lim": 3210,
      "tro": 3211,
      "viron": 3212,
      "▁ac": 3213,
      "▁Ge": 3214,
      "▁dance": 3215,
      "ade": 3216,
      "▁43": 3217,
      "▁grow": 3218,
      "ffer": 3219,
      "osed": 3220,
      "▁who": 3221,
      "ghal": 3222,
      "harm": 3223,
      "vironment": 3224,
      ".6": 3225,
      "53": 3226,
      "ces": 3227,
      "▁Ad": 3228,
      "▁Bi": 3229,
      "▁mi": 3230,
      "ley": 3231,
      "▁de": 3232,
      "▁978-0-52": 3233,
      "▁know": 3234,
      "▁century": 3235,
      "▁Informatics": 3236,
      "gov.in": 3237,
      "▁978-0-521-": 3238,
      "co": 3239,
      "ket": 3240,
      "ten": 3241,
      "ंब": 3242,
      "गढ़": 3243,
      "न्त": 3244,
      "▁em": 3245,
      "▁they": 3246,
      "▁सक": 3247,
      "▁सैन": 3248,
      "▁पर्व": 3249,
      "ार्": 3250,
      "▁C.": 3251,
      "▁Pers": 3252,
      "omen": 3253,
      "▁वा": 3254,
      "िकी": 3255,
      "▁तट": 3256,
      "▁national": 3257,
      "▁Fish": 3258,
      "▁rec": 3259,
      "▁लेख": 3260,
      "्वर": 3261,
      "्वीप": 3262,
      "न्ह": 3263,
      "▁इंड": 3264,
      "ंगा": 3265,
      "▁करोड़": 3266,
      "▁होता": 3267,
      "▁२०": 3268,
      "▁प्राचीन": 3269,
      "▁कारण": 3270,
      "▁मैदान": 3271,
      "▁Affairs": 3272,
      "ज्ञान": 3273,
      "▁ब्रिट": 3274,
      "one": 3275,
      "ing,": 3276,
      "▁J.": 3277,
      "adh": 3278,
      "▁Environment": 3279,
      "ovement": 3280,
      "opedia": 3281,
      "▁Emp": 3282,
      "▁Quote:": 3283,
      "stitu": 3284,
      "tal": 3285,
      "vid": 3286,
      "yn": 3287,
      "▁2,": 3288,
      "▁Publish": 3289,
      "ica": 3290,
      "▁Her": 3291,
      "▁General": 3292,
      "▁Global": 3293,
      "%),": 3294,
      "-অ": 3295,
      "-পূর্ব": 3296,
      ".২": 3297,
      ".৭": 3298,
      "72": 3299,
      "hat": 3300,
      "ject": 3301,
      "line": 3302,
      "জ্ঞান": 3303,
      "তায়": 3304,
      "থ্য": 3305,
      "দিকে": 3306,
      "পার": 3307,
      "ব্য": 3308,
      "ষিত": 3309,
      "াকে": 3310,
      "িশ": 3311,
      "ীব": 3312,
      "োদ": 3313,
      "ৌর": 3314,
      "২৮": 3315,
      "৪।": 3316,
      "৫৯": 3317,
      "ంది": 3318,
      "ఖండ": 3319,
      "గిన": 3320,
      "జి": 3321,
      "రీ": 3322,
      "లస": 3323,
      "లలో": 3324,
      "శ్చ": 3325,
      "ివ": 3326,
      "ెలు": 3327,
      "్వ": 3328,
      "్‌": 3329,
      "▁ছ": 3330,
      "▁(১": 3331,
      "▁সদ": 3332,
      "▁স্ত": 3333,
      "▁পাত": 3334,
      "▁Ac": 3335,
      "▁কৃ": 3336,
      "▁কাশ্ম": 3337,
      "▁কংগ্রেস": 3338,
      "▁২৩": 3339,
      "▁অভি": 3340,
      "▁আফ": 3341,
      "▁పట్ట": 3342,
      "▁పెద్ద": 3343,
      "▁పశ్చ": 3344,
      "ారి": 3345,
      "▁তাম": 3346,
      "▁তেল": 3347,
      "▁তথ্য": 3348,
      "▁হতে": 3349,
      "▁প্রচল": 3350,
      "▁নীতি": 3351,
      "▁জোট": 3352,
      "▁জলব": 3353,
      "00–సా.శ.పూ.": 3354,
      "▁দ্বীপ": 3355,
      "▁সংরক্ষণ": 3356,
      "▁మాత": 3357,
      "▁Nat": 3358,
      "▁থাকে": 3359,
      "▁শ্র": 3360,
      "রেখ": 3361,
      "▁జరి": 3362,
      "▁నగ": 3363,
      "▁ఉంట": 3364,
      "▁తమి": 3365,
      "▁తరువ": 3366,
      "▁ఆధ": 3367,
      "▁ఆఫ్": 3368,
      "▁নিজ": 3369,
      "▁ఇండ": 3370,
      "▁১৯৮": 3371,
      "কারী": 3372,
      "ঞ্চলে": 3373,
      "িয়া": 3374,
      "▁চল": 3375,
      "▁బహ": 3376,
      "▁బ్రి": 3377,
      "▁బెంగ": 3378,
      "▁৩০": 3379,
      "▁గణ": 3380,
      "▁గల": 3381,
      "▁states": 3382,
      "aint": 3383,
      "able": 3384,
      "▁1994": 3385,
      "▁విస్త": 3386,
      "ght": 3387,
      "▁পরিষ": 3388,
      "▁পাকিস্তান": 3389,
      "জাতিক": 3390,
      "ন্ধু": 3391,
      "্রুপ": 3392,
      "▁Reg": 3393,
      "వాణా": 3394,
      "▁০-১৯-": 3395,
      "▁বর্তম": 3396,
      "▁China": 3397,
      "▁ডলার": 3398,
      "▁হিন্দি": 3399,
      "ছিল।": 3400,
      "▁গণতান্ত্রিক": 3401,
      "▁ক্ষম": 3402,
      "▁দুই": 3403,
      "▁భాషలు": 3404,
      "▁বহু": 3405,
      "▁নিবন্ধ:": 3406,
      "▁మార్గాలు": 3407,
      "▁আন্দোল": 3408,
      "▁দেখা": 3409,
      "▁দশক": 3410,
      "▁అయిన": 3411,
      "▁পরীক্ষা": 3412,
      "▁సింధ": 3413,
      "▁হিসেবে": 3414,
      "▁(eds.).": 3415,
      "শিষ্ট": 3416,
      "ildlife": 3417,
      "▁పశ్చిమ": 3418,
      "▁తమిళ": 3419,
      "▁తరువాత": 3420,
      "thn": 3421,
      "▁(1):": 3422,
      "▁occ": 3423,
      "▁Science": 3424,
      "ase": 3425,
      "▁sur": 3426,
      "▁col": 3427,
      "ould": 3428,
      "▁mus": 3429,
      "▁major": 3430,
      "▁Nar": 3431,
      "▁Nations": 3432,
      "ross": 3433,
      "▁status": 3434,
      "▁Hind": 3435,
      "...": 3436,
      "-4": 3437,
      "4.": 3438,
      "ual": 3439,
      "एँ": 3440,
      "एस": 3441,
      "णी": 3442,
      "निक": 3443,
      "वी": 3444,
      "ृष": 3445,
      "ेर": 3446,
      "ेस": 3447,
      "▁क्र": 3448,
      "▁कर्": 3449,
      "▁कश्": 3450,
      "▁(N": 3451,
      "▁मन": 3452,
      "▁अव": 3453,
      "▁अर्थ": 3454,
      "्यों": 3455,
      "▁दर": 3456,
      "▁दिल्": 3457,
      "olly": 3458,
      "िक्ष": 3459,
      "▁East": 3460,
      "▁आर्थ": 3461,
      "▁संग": 3462,
      "▁संयुक्त": 3463,
      "▁संसद": 3464,
      "umb": 3465,
      "▁शुर": 3466,
      "▁यू": 3467,
      "▁क्षेत्रीय": 3468,
      "▁(2006": 3469,
      "ंग्रेस": 3470,
      "्राज्य": 3471,
      "▁महार": 3472,
      "▁स्थित": 3473,
      "▁बांग्": 3474,
      "▁Asher": 3475,
      "▁युद्ध": 3476,
      "▁साम्राज्य": 3477,
      "▁पार्ट": 3478,
      "धिकारिक": 3479,
      "▁बीच": 3480,
      "olicy": 3481,
      "▁दशक": 3482,
      "▁अप्रैल": 3483,
      "▁लेख:": 3484,
      "▁ब्रिटिश": 3485,
      "▁कश्मी": 3486,
      "▁दिल्ली": 3487,
      "ollywood": 3488,
      "▁आर्थिक": 3489,
      "▁बांग्ला": 3490,
      "51": 3491,
      "6.": 3492,
      "ages": 3493,
      "dle": 3494,
      "▁+": 3495,
      "ency": 3496,
      "▁Ara": 3497,
      "▁social": 3498,
      "▁country": 3499,
      "▁incre": 3500,
      "▁\"L": 3501,
      "▁Or": 3502,
      "▁rep": 3503,
      "▁State": 3504,
      "▁Hinduism": 3505,
      "▁Encyclopedia": 3506,
      "cise": 3507,
      "ha": 3508,
      "jab": 3509,
      "of": 3510,
      "orn": 3511,
      "▁south": 3512,
      "▁Mal": 3513,
      "▁Mah": 3514,
      "udden": 3515,
      "▁under": 3516,
      "ight": 3517,
      "▁shall": 3518,
      "▁peri": 3519,
      "38": 3520,
      "5,": 3521,
      "9)": 3522,
      "pec": 3523,
      "ww": 3524,
      "ani": 3525,
      "▁Linguistic": 3526,
      "▁group": 3527,
      "osi": 3528,
      "ivil": 3529,
      "▁Indus": 3530,
      "▁Amer": 3531,
      "▁used": 3532,
      "-l": 3533,
      "70": 3534,
      "ties": 3535,
      "▁\"E": 3536,
      "▁war": 3537,
      "▁Bar": 3538,
      "▁many": 3539,
      "anges": 3540,
      "▁report": 3541,
      "iddle": 3542,
      "ate=": 3543,
      "▁article": 3544,
      "ake": 3545,
      "▁world's": 3546,
      "-date=": 3547,
      "▁President": 3548,
      "▁name:": 3549,
      "):": 3550,
      "77": 3551,
      "IA": 3552,
      "rol": 3553,
      "ym": 3554,
      "ंति": 3555,
      "टक": 3556,
      "डी": 3557,
      "लय": 3558,
      "िला": 3559,
      "ीत": 3560,
      "ुल": 3561,
      "ृति": 3562,
      "ोष": 3563,
      "ौर": 3564,
      "▁सद": 3565,
      "▁सह": 3566,
      "▁साल": 3567,
      "▁सम्": 3568,
      "▁महा": 3569,
      "▁CE": 3570,
      "▁Ma": 3571,
      "▁found": 3572,
      "▁केन्द्र": 3573,
      "▁Bank": 3574,
      "▁Bharat": 3575,
      "▁नव": 3576,
      "▁बंग": 3577,
      "▁H.": 3578,
      "▁later": 3579,
      "▁def": 3580,
      "▁आधिकारिक": 3581,
      "▁गा": 3582,
      "unjab": 3583,
      "▁उन": 3584,
      "▁ले": 3585,
      "ताब्": 3586,
      "▁संबंध": 3587,
      "▁इन": 3588,
      "▁शताब्": 3589,
      "▁राजनी": 3590,
      "earch": 3591,
      "ाष्ट्र": 3592,
      "सेना": 3593,
      "▁जाती": 3594,
      "▁वर्ग": 3595,
      "▁स्था": 3596,
      "▁किया।": 3597,
      "▁पूर्वी": 3598,
      "ibr": 3599,
      "▁गुजरा": 3600,
      "▁978-0-19-": 3601,
      "▁थी।": 3602,
      "▁सूचना": 3603,
      "▁पहले": 3604,
      "▁स्वतंत्रता": 3605,
      "▁प्रधानमंत्री": 3606,
      "▁पर्यटन": 3607,
      "▁चुनावों": 3608,
      "▁सैन्य": 3609,
      "▁Empire": 3610,
      "▁period": 3611,
      "▁शताब्दी": 3612,
      "1–": 3613,
      "1200": 3614,
      "27": 3615,
      "ris": 3616,
      "s=": 3617,
      "ওআই": 3618,
      "চে": 3619,
      "তী": 3620,
      "তন্ত্র": 3621,
      "থে": 3622,
      "পূর্ণ": 3623,
      "বা": 3624,
      "বিক": 3625,
      "ভ্য": 3626,
      "রু": 3627,
      "ষি": 3628,
      "স্য": 3629,
      "সফোর্": 3630,
      "িউ": 3631,
      "েই": 3632,
      "েলি": 3633,
      "৪-": 3634,
      "৬৫": 3635,
      "৭১": 3636,
      "ం,": 3637,
      "ందిన": 3638,
      "కాల": 3639,
      "కీయ": 3640,
      "కారం": 3641,
      "క్రమ": 3642,
      "టిక": 3643,
      "ట్ల": 3644,
      "దం": 3645,
      "ధి": 3646,
      "బె": 3647,
      "మ్మ": 3648,
      "రిక": 3649,
      "వులు": 3650,
      "శ్మ": 3651,
      "ష్ట": 3652,
      "ాద": 3653,
      "ూప": 3654,
      "ౌక": 3655,
      "▁*": 3656,
      "▁గా": 3657,
      "▁০.": 3658,
      "▁ద్వ": 3659,
      "▁(ই": 3660,
      "▁(ম": 3661,
      "▁সক্ষম": 3662,
      "araj": 3663,
      "▁পি": 3664,
      "▁পো": 3665,
      "▁120": 3666,
      "▁বু": 3667,
      "▁বায়ু": 3668,
      "▁মানু": 3669,
      "▁SA": 3670,
      "▁কম": 3671,
      "▁People": 3672,
      "▁অংশ": 3673,
      "▁আঞ্চল": 3674,
      "▁আন্তর্": 3675,
      "▁Mana": 3676,
      "ాలో": 3677,
      "ারিত": 3678,
      "▁প্রায়": 3679,
      "▁প্রশাস": 3680,
      "▁নৃত্য": 3681,
      "▁জি": 3682,
      "▁Rev": 3683,
      "▁উদ": 3684,
      "▁দা": 3685,
      "ালত": 3686,
      "▁సమ": 3687,
      "▁సరి": 3688,
      "▁సంగ": 3689,
      "▁সংখ্যা": 3690,
      "▁రవాణా": 3691,
      "▁వె": 3692,
      "▁వర్": 3693,
      "ver,": 3694,
      "▁భూ": 3695,
      "▁Liter": 3696,
      "▁Law": 3697,
      "কৃতিক": 3698,
      "▁শহ": 3699,
      "▁শিক্ষ": 3700,
      "▁అనే": 3701,
      "▁అత్య": 3702,
      "▁Off": 3703,
      "▁(సా.శ.1": 3704,
      "▁(సా.శ.13": 3705,
      "▁(సా.శ.15": 3706,
      "▁গু": 3707,
      "▁যার": 3708,
      "▁ইন": 3709,
      "িল্লি": 3710,
      "▁২০১২": 3711,
      "ాతంత్ర": 3712,
      "▁|co": 3713,
      "▁নিয়ে": 3714,
      "▁সমাজ": 3715,
      "▁সমভূমি": 3716,
      "▁একাধিক": 3717,
      "▁సాధ": 3718,
      "త్తం": 3719,
      "▁জাতি": 3720,
      "▁চীন": 3721,
      "▁বিশেষ": 3722,
      "ంగ్రె": 3723,
      "▁ডিওআই": 3724,
      "47)": 3725,
      "▁বিশ্বকা": 3726,
      "onstituent": 3727,
      "▁পরিচ": 3728,
      "▁శ్రీ": 3729,
      "াগর": 3730,
      "▁ধ্রুপ": 3731,
      "▁পাঁচ": 3732,
      "▁সরকারের": 3733,
      "▁ఎక్కువ": 3734,
      "▁স্বা": 3735,
      "▁বৃদ্ধি": 3736,
      "▁কোটি": 3737,
      "▁২০২০": 3738,
      "▁২০২২": 3739,
      "▁లే": 3740,
      "▁অক্সফোর্": 3741,
      "রিক্ত": 3742,
      "▁రాష్ట్రపతి": 3743,
      "▁వ్యాస": 3744,
      "▁উত্তর-পূর্ব": 3745,
      "▁కాశ్మ": 3746,
      "▁కాంగ్రె": 3747,
      "▁সিন্ধু": 3748,
      "▁বিজ্ঞান": 3749,
      "▁మొత్తం": 3750,
      "চ্চিত্র": 3751,
      "ప్రదాయ": 3752,
      "▁స్వాతంత్ర": 3753,
      "తున్న": 3754,
      "▁অন্যতম": 3755,
      "▁ఏర్": 3756,
      "ుకో": 3757,
      "authors=": 3758,
      "চিত্র্য": 3759,
      "▁ఎన్నో": 3760,
      "▁অতিরিক্ত": 3761,
      "▁పాకిస్తాన్": 3762,
      "▁উইকি": 3763,
      "▁হিমালয়": 3764,
      "▁আদালত": 3765,
      "▁ঐতিহ্য": 3766,
      "▁তামিল": 3767,
      "▁ఇండో": 3768,
      "▁চলচ্চিত্র": 3769,
      "▁মানুষ": 3770,
      "▁আঞ্চলিক": 3771,
      "▁আন্তর্জাতিক": 3772,
      "▁సరిహ": 3773,
      "▁అత్యధిక": 3774,
      "▁Office": 3775,
      "▁|coauthors=": 3776,
      "▁অক্সফোর্ড": 3777,
      "eg": 3778,
      "oon": 3779,
      "rough": 3780,
      "▁i": 3781,
      "▁(a": 3782,
      "▁2000": 3783,
      "▁Summ": 3784,
      "▁Pri": 3785,
      "▁Mac": 3786,
      "read": 3787,
      "▁both": 3788,
      "▁Ra": 3789,
      "▁minist": 3790,
      "▁mathema": 3791,
      "amp": 3792,
      "rac": 3793,
      "▁economic": 3794,
      "▁Ludden": 3795,
      "▁Wildlife": 3796,
      "avid": 3797,
      "ife": 3798,
      "emocracy": 3799,
      "▁among": 3800,
      "▁article:": 3801,
      "7%": 3802,
      "rd": 3803,
      "s:": 3804,
      "ini": 3805,
      "ering": 3806,
      "ed,": 3807,
      "▁Sik": 3808,
      "▁\"R": 3809,
      "▁mil": 3810,
      "▁Ne": 3811,
      "▁total": 3812,
      "ists": 3813,
      "ogn": 3814,
      "▁1960": 3815,
      "▁Chinese": 3816,
      "▁Concise": 3817,
      "▁literature": 3818,
      "▁Research": 3819,
      "▁Bengal": 3820,
      "▁music": 3821,
      "ibrary": 3822,
      "3-": 3823,
      "60": 3824,
      "hm": 3825,
      "iew": 3826,
      "rar": 3827,
      "yp": 3828,
      "ories": 3829,
      "▁\"S": 3830,
      "▁medi": 3831,
      "istrar": 3832,
      "▁Ex": 3833,
      "▁Of": 3834,
      "▁around": 3835,
      "▁Vol": 3836,
      "▁Prog": 3837,
      "ording": 3838,
      "▁Mughal": 3839,
      "▁Registrar": 3840,
      "500": 3841,
      "dom": 3842,
      "ms": 3843,
      "ool": 3844,
      "ई।": 3845,
      "तृत": 3846,
      "द्र": 3847,
      "नों": 3848,
      "पे": 3849,
      "फल": 3850,
      "बाद": 3851,
      "लग": 3852,
      "लों": 3853,
      "वीं": 3854,
      "ाख": 3855,
      "ागर": 3856,
      "ेष": 3857,
      "ॉंग्रेस": 3858,
      "▁(3": 3859,
      "enti": 3860,
      "▁स्त": 3861,
      "▁सर्व": 3862,
      "att": 3863,
      "▁Punjab": 3864,
      "itage": 3865,
      "▁Mon": 3866,
      "▁trans": 3867,
      "▁भा": 3868,
      "्यता": 3869,
      "▁Dance": 3870,
      "र्त": 3871,
      "▁बि": 3872,
      "▁US": 3873,
      "▁लोग": 3874,
      "▁विदेश": 3875,
      "▁विस्त": 3876,
      "▁विभा": 3877,
      "▁2026": 3878,
      "▁नेतृत": 3879,
      "▁जनजा": 3880,
      "▁play": 3881,
      "▁कुछ": 3882,
      "▁All": 3883,
      "▁ईसा": 3884,
      "▁Plate": 3885,
      "▁ओर": 3886,
      "▁बहुत": 3887,
      "▁संस्कृति": 3888,
      "▁निर्माण": 3889,
      "▁prime": 3890,
      "▁Muslim": 3891,
      "▁न्यायालय": 3892,
      "▁२०१": 3893,
      "▁minister": 3894,
      "6–": 3895,
      "ather": 3896,
      "east": 3897,
      "fic": 3898,
      "ii": 3899,
      "ta": 3900,
      "vel": 3901,
      "indi": 3902,
      "al,": 3903,
      "▁them": 3904,
      "▁\"G": 3905,
      "▁Bang": 3906,
      "▁made": 3907,
      "▁Jam": 3908,
      "▁War": 3909,
      "▁dis": 3910,
      "▁left": 3911,
      "-20": 3912,
      "DP": 3913,
      "aul": 3914,
      "mar": 3915,
      "ove": 3916,
      "red": 3917,
      "ration": 3918,
      "on,": 3919,
      "▁\"B": 3920,
      "ently": 3921,
      "▁Brit": 3922,
      "▁D.": 3923,
      "▁member": 3924,
      "ett": 3925,
      "ird": 3926,
      "ities,": 3927,
      "annica": 3928,
      "ances": 3929,
      "▁London:": 3930,
      "▁Class": 3931,
      "▁Britannica": 3932,
      "eth": 3933,
      "uri": 3934,
      "▁(b": 3935,
      "▁Court": 3936,
      "▁pre": 3937,
      "▁Sup": 3938,
      "▁Pet": 3939,
      "urban": 3940,
      "ems": 3941,
      "▁non-": 3942,
      "▁Ur": 3943,
      "opular": 3944,
      "endra": 3945,
      "▁subject": 3946,
      "▁administ": 3947,
      "▁religious": 3948,
      "▁Islands": 3949,
      "troduction": 3950,
      "▁known": 3951,
      "\"।": 3952,
      "-১": 3953,
      "eak": 3954,
      "s\"": 3955,
      "ute": 3956,
      "আর": 3957,
      "উড": 3958,
      "এল": 3959,
      "খণ্ড": 3960,
      "জার্": 3961,
      "ঢ়": 3962,
      "ণত": 3963,
      "তু": 3964,
      "তৃত": 3965,
      "থিব": 3966,
      "দা": 3967,
      "ধী": 3968,
      "নার": 3969,
      "নিয়": 3970,
      "বর্": 3971,
      "ব্দ": 3972,
      "মার": 3973,
      "যু": 3974,
      "সাম": 3975,
      "সাইট": 3976,
      "ুমান": 3977,
      "ূচ": 3978,
      "েন": 3979,
      "২৩": 3980,
      "৩২": 3981,
      "৩৭": 3982,
      "৩৮": 3983,
      "৪৭": 3984,
      "৬)।": 3985,
      "৭৭": 3986,
      "ంజ": 3987,
      "ంప": 3988,
      "టీ": 3989,
      "ద్ర": 3990,
      "నాలు": 3991,
      "మీ": 3992,
      "రాలు": 3993,
      "లకు": 3994,
      "లను": 3995,
      "లతో": 3996,
      "సభ": 3997,
      "సియా": 3998,
      "ిల్": 3999,
      "ీ,": 4000,
      "ీతం": 4001,
      "ూచ": 4002,
      "ృద్ధి": 4003,
      "▁°": 4004,
      "▁ఐ": 4005,
      "▁ఖ": 4006,
      "▁ఫ": 4007,
      "▁ed.).": 4008,
      "ারে": 4009,
      "▁(c": 4010,
      "▁(edi": 4011,
      "য়।": 4012,
      "▁সিক": 4013,
      "▁সীম": 4014,
      "▁Its": 4015,
      "arth": 4016,
      "্যালয়": 4017,
      "▁পু": 4018,
      "▁পাল": 4019,
      "▁পরে": 4020,
      "▁বলে": 4021,
      "▁মি": 4022,
      "▁ভি": 4023,
      "▁কারণ": 4024,
      "▁কাপ": 4025,
      "▁২৭": 4026,
      "▁অর্": 4027,
      "▁অন্তর্": 4028,
      "▁আধ": 4029,
      "▁আয়": 4030,
      "▁పర": 4031,
      "▁పండ": 4032,
      "omb": 4033,
      "িকী": 4034,
      "িকার": 4035,
      "reme": 4036,
      "ాలయ": 4037,
      "▁হকি": 4038,
      "▁প্রতী": 4039,
      "▁acc": 4040,
      "▁নিক": 4041,
      "▁জৈ": 4042,
      "▁উন্ন": 4043,
      "▁Des": 4044,
      "▁দ্র": 4045,
      "▁సు": 4046,
      "▁సమా": 4047,
      "▁సిక్": 4048,
      "▁বিভ": 4049,
      "▁বিষ": 4050,
      "▁বিদেশ": 4051,
      "▁বিবে": 4052,
      "▁రో": 4053,
      "▁మన": 4054,
      "ర్లు": 4055,
      "ক্ষেত্র": 4056,
      "স্থান": 4057,
      "స్సా": 4058,
      "▁his": 4059,
      "▁শব্দ": 4060,
      "▁ప్రతి": 4061,
      "▁ప్రము": 4062,
      "▁ప్రస్తు": 4063,
      "▁ప్రకారం": 4064,
      "▁భారత్": 4065,
      "▁Journal": 4066,
      "▁అను": 4067,
      "▁చిన్న": 4068,
      "▁(సా.శ.17": 4069,
      "▁(సా.శ.14": 4070,
      "লিয়ন": 4071,
      "▁జాబ": 4072,
      "–సా.శ.17": 4073,
      "–సా.శ.15": 4074,
      "–సా.శ.12": 4075,
      "▁ref": 4076,
      "াবাদ": 4077,
      "▁যে": 4078,
      "▁నాగ": 4079,
      "క్‌": 4080,
      "ాత్ర": 4081,
      "▁|author": 4082,
      "▁రాజకీయ": 4083,
      "▁নিয়": 4084,
      "▁ఇండి": 4085,
      "▁উপর": 4086,
      "2004": 4087,
      "▁খাত": 4088,
      "▁খালি": 4089,
      "স্ত্র": 4090,
      "త్స": 4091,
      "త్వం": 4092,
      "ాను": 4093,
      "ంతో": 4094,
      "▁১৯৫০": 4095,
      "ద్దు": 4096,
      "▁করেছে।": 4097,
      "▁পৃথিব": 4098,
      "িয়ান": 4099,
      "ার্সি": 4100,
      "ులు,": 4101,
      "ించి": 4102,
      "▁বিশ্বে": 4103,
      "স্ট্র": 4104,
      "▁(২০১": 4105,
      "▁পরিণত": 4106,
      "▁area": 4107,
      "সংঘ": 4108,
      "▁হয়েছে।": 4109,
      "▁(సా.శ.పూ.3": 4110,
      "▁রাষ্ট্র।": 4111,
      "▁প্যারামিটারে": 4112,
      "atis": 4113,
      "విధ": 4114,
      "▁దేశాల": 4115,
      "▁লক্ষ": 4116,
      "▁বৈদেশ": 4117,
      "মেন্ট": 4118,
      "▁ప్రాచ": 4119,
      "ందు": 4120,
      "స్థాన్": 4121,
      "্রুত": 4122,
      "ountries": 4123,
      "▁978-1-10": 4124,
      "▁বর্ষ": 4125,
      "▁করুন": 4126,
      "year=": 4127,
      "▁প্রতিষ্ঠ": 4128,
      "মাণবিক": 4129,
      "డిప": 4130,
      "▁সাং": 4131,
      "▁সাক্ষর": 4132,
      "▁সর্বাধিক": 4133,
      "▁ముఖ్య": 4134,
      "▁religion": 4135,
      "িকাংশ": 4136,
      "▁Rothermund": 4137,
      "১-৪": 4138,
      "▁অধিকাংশ": 4139,
      "▁|access-date=": 4140,
      "▁|accessyear=": 4141,
      "ాల్లో": 4142,
      "▁కాలంలో": 4143,
      "లంక": 4144,
      "▁রাজনীতি": 4145,
      "▁অন্যদিকে": 4146,
      "▁చేస": 4147,
      "▁అధికారిక": 4148,
      "▁సిని": 4149,
      "▁স্থাপত্য": 4150,
      "7,26": 4151,
      "▁নির্বাচিত": 4152,
      "য়োজ": 4153,
      "▁পারমাণবিক": 4154,
      "▁অবস্থিত": 4155,
      "▁এছাড়াও": 4156,
      "▁ప్రభుత్వ": 4157,
      "▁నేపాల": 4158,
      "গুলিতে": 4159,
      "▁శాస్త": 4160,
      "মহাদেশ": 4161,
      "▁రెండు": 4162,
      "▁পর্বতমালা": 4163,
      "▁কর্তৃ": 4164,
      "▁আনুমান": 4165,
      "▁উৎসব": 4166,
      "▁mi)": 4167,
      "▁সদস্য": 4168,
      "▁কৃষি": 4169,
      "▁কাশ্মীর": 4170,
      "▁জলবায়ু": 4171,
      "▁గణతంత్ర": 4172,
      "▁০-১৯-৫৬": 4173,
      "▁বিশ্বকাপ": 4174,
      "▁వ్యాసం:": 4175,
      "▁ఏర్ప": 4176,
      "▁సరిహద్దు": 4177,
      "▁(editor": 4178,
      "▁প্রতীক": 4179,
      "▁ప్రముఖ": 4180,
      "▁జాబిత": 4181,
      "▁|author=": 4182,
      "▁পৃথিবীর": 4183,
      "▁বৈদেশিক": 4184,
      "▁আনুমানিক": 4185,
      ".0": 4186,
      "BC": 4187,
      "ran": 4188,
      "ंक": 4189,
      "दू": 4190,
      "धी": 4191,
      "पर": 4192,
      "भग": 4193,
      "मह": 4194,
      "र-": 4195,
      "व्यवस्था": 4196,
      "शन": 4197,
      "हरी": 4198,
      "ुनिक": 4199,
      "ूस": 4200,
      "ूह": 4201,
      "ॉल": 4202,
      "्ले": 4203,
      "▁कॉंग्रेस": 4204,
      "▁सु": 4205,
      "▁सो": 4206,
      "▁सित": 4207,
      "▁मई": 4208,
      "▁मिल": 4209,
      "▁Cons": 4210,
      "▁sq": 4211,
      "▁Par": 4212,
      "omet": 4213,
      "▁bel": 4214,
      "▁billion": 4215,
      "▁Book": 4216,
      "▁में,": 4217,
      "▁David": 4218,
      "▁ज़": 4219,
      "▁वे": 4220,
      "▁वै": 4221,
      "olper": 4222,
      "very": 4223,
      "▁तेल": 4224,
      "▁प्रार": 4225,
      "▁काल": 4226,
      "▁आक": 4227,
      "▁लिये": 4228,
      "▁इतिहास": 4229,
      "ेश्वर": 4230,
      "▁परमाण": 4231,
      "2009": 4232,
      "म्ब": 4233,
      "म्भ": 4234,
      "▁And": 4235,
      "▁हिम": 4236,
      "India": 4237,
      "▁जनवरी": 4238,
      "▁km": 4239,
      "ological": 4240,
      "ific": 4241,
      "denti": 4242,
      "▁स्थान": 4243,
      "▁घा": 4244,
      "ल्स": 4245,
      "▁हुआ।": 4246,
      "▁(2nd": 4247,
      "▁समाज": 4248,
      "▁(2018),": 4249,
      "▁उत्प": 4250,
      "▁पर्वत": 4251,
      "▁महाराष्ट्र": 4252,
      "▁कश्मीर": 4253,
      "▁Americ": 4254,
      "▁स्थाप": 4255,
      "▁जनजाति": 4256,
      "▁परमाणु": 4257,
      "-3": 4258,
      "4%": 4259,
      "CN": 4260,
      "▁emp": 4261,
      "tis": 4262,
      "tition": 4263,
      "astern": 4264,
      "▁ser": 4265,
      "omin": 4266,
      "▁fl": 4267,
      "▁work": 4268,
      "ingdom": 4269,
      "▁Br": 4270,
      "▁By": 4271,
      "acy": 4272,
      ".com": 4273,
      "▁Afric": 4274,
      "ttp": 4275,
      "8–": 4276,
      "india": 4277,
      "▁Portal": 4278,
      "▁Me": 4279,
      "▁far": 4280,
      "▁western": 4281,
      "▁Bl": 4282,
      "am,": 4283,
      "▁new": 4284,
      "ments": 4285,
      "▁Val": 4286,
      "ollow": 4287,
      "▁Publication": 4288,
      "▁Health": 4289,
      "63": 4290,
      "ij": 4291,
      "yan": 4292,
      "anth": 4293,
      "atter": 4294,
      "▁po": 4295,
      "▁Ph": 4296,
      "itz": 4297,
      "▁four": 4298,
      "▁web": 4299,
      "rig": 4300,
      "ama": 4301,
      "▁Nuclear": 4302,
      "▁des": 4303,
      "▁37": 4304,
      "▁Kulke": 4305,
      "▁only": 4306,
      "ume": 4307,
      "▁differ": 4308,
      "▁Year": 4309,
      "▁produ": 4310,
      "▁Religion": 4311,
      "▁Encyclop": 4312,
      "▁second": 4313,
      "▁Program": 4314,
      "ll": 4315,
      "ren": 4316,
      "rish": 4317,
      "▁urban": 4318,
      "erc": 4319,
      "ert": 4320,
      "▁though": 4321,
      "▁IN": 4322,
      "ara": 4323,
      "ederal": 4324,
      "▁Stu": 4325,
      "▁infl": 4326,
      "▁tex": 4327,
      "▁high": 4328,
      "opp": 4329,
      "▁Kum": 4330,
      "ada": 4331,
      "▁began": 4332,
      "ovember": 4333,
      "▁This": 4334,
      "▁lead": 4335,
      "▁marri": 4336,
      "▁about": 4337,
      "▁election": 4338,
      "chnology": 4339,
      "▁(a)": 4340,
      "▁(b)": 4341,
      "22": 4342,
      "59": 4343,
      "RC": 4344,
      "eign": 4345,
      "lad": 4346,
      "most": 4347,
      "ंत": 4348,
      "ंस": 4349,
      "ची": 4350,
      "टा": 4351,
      "धि": 4352,
      "भारत": 4353,
      "मत": 4354,
      "सभा": 4355,
      "सून": 4356,
      "हि": 4357,
      "▁ऐ": 4358,
      "▁५": 4359,
      "in,": 4360,
      "▁सभ": 4361,
      "▁मल": 4362,
      "▁मो": 4363,
      "▁Part": 4364,
      "▁हर": 4365,
      "▁हाला": 4366,
      "reed": 4367,
      "▁असम": 4368,
      "▁Bra": 4369,
      "▁जब": 4370,
      "र्जा": 4371,
      "▁व्या": 4372,
      "▁नद": 4373,
      "▁नाग": 4374,
      "▁बौ": 4375,
      "▁North": 4376,
      "uss": 4377,
      "istor": 4378,
      "▁GDP": 4379,
      "ular": 4380,
      "▁economy": 4381,
      "▁काम": 4382,
      "▁आद": 4383,
      "ियां": 4384,
      "नाथ": 4385,
      "1998": 4386,
      "▁श्री": 4387,
      "▁शिक्ष": 4388,
      "akh": 4389,
      "▁रक्षा": 4390,
      "owe": 4391,
      "क्षर": 4392,
      "▁ass": 4393,
      "स्थान": 4394,
      "liament": 4395,
      "▁निभा": 4396,
      "▁१९९": 4397,
      "करण": 4398,
      "▁जिसमें": 4399,
      "▁parliament": 4400,
      "tein1998": 4401,
      "ोलन": 4402,
      "▁थे": 4403,
      "▁दिसंबर": 4404,
      "ingh2009": 4405,
      "▁मानव": 4406,
      "▁control": 4407,
      "▁वर्षों": 4408,
      "बंधन": 4409,
      "oint": 4410,
      "क्स": 4411,
      "▁CITEREFStein1998": 4412,
      "▁CITEREFSingh2009": 4413,
      "imalay": 4414,
      "▁लगभग": 4415,
      "▁territories": 4416,
      "▁भूमिका": 4417,
      "▁estimate": 4418,
      "▁पंजाब": 4419,
      "न्तु": 4420,
      "▁नेतृत्व": 4421,
      "▁प्रारम्भ": 4422,
      "▁हिमालय": 4423,
      "ladesh": 4424,
      "▁शिक्षा": 4425,
      ",4": 4426,
      "-10": 4427,
      "//": 4428,
      "01": 4429,
      "4–": 4430,
      "ward": 4431,
      "yle": 4432,
      "▁Sec": 4433,
      "▁Paul": 4434,
      "▁wid": 4435,
      "▁BBC": 4436,
      "▁life": 4437,
      "▁Economy": 4438,
      "▁early": 4439,
      "▁2001": 4440,
      "▁Library": 4441,
      "ector": 4442,
      "▁along": 4443,
      "▁imp": 4444,
      "▁Indo-A": 4445,
      "ependence": 4446,
      "▁Karanth": 4447,
      "▁US$": 4448,
      "ael": 4449,
      "ail": 4450,
      "lor": 4451,
      "ring": 4452,
      "ton": 4453,
      "এম": 4454,
      "কক্ষ": 4455,
      "খন": 4456,
      "খ্যার": 4457,
      "ঘল": 4458,
      "চ্": 4459,
      "চিত": 4460,
      "টান": 4461,
      "টাল": 4462,
      "ধর": 4463,
      "ন=": 4464,
      "পুর": 4465,
      "মোদ": 4466,
      "লক": 4467,
      "শ্র": 4468,
      "শাল": 4469,
      "শাক": 4470,
      "ীকৃত": 4471,
      "ুক": 4472,
      "েয়": 4473,
      "েপি": 4474,
      "ৈধ": 4475,
      "ৈলী": 4476,
      "োন": 4477,
      "োষ্ঠ": 4478,
      "১৫": 4479,
      "১৭": 4480,
      "৫৫": 4481,
      "৭৬": 4482,
      "৯-": 4483,
      "৯৮": 4484,
      "ం.": 4485,
      "కొ": 4486,
      "కాలు": 4487,
      "గంగా": 4488,
      "చల్": 4489,
      "టక": 4490,
      "ణంగా": 4491,
      "తిక": 4492,
      "తాబ్": 4493,
      "దార": 4494,
      "మంత్ర": 4495,
      "యో": 4496,
      "రే": 4497,
      "లే": 4498,
      "షు": 4499,
      "సి": 4500,
      "సు": 4501,
      "ాదేశ్": 4502,
      "ెన": 4503,
      "ోళ": 4504,
      "▁০": 4505,
      "▁ছিল": 4506,
      "্রদ": 4507,
      "্রাজ": 4508,
      "▁(বি": 4509,
      "▁(এন": 4510,
      "▁(সি": 4511,
      "▁(০.": 4512,
      "য়ী": 4513,
      "য়িকী": 4514,
      "▁সার": 4515,
      "arge": 4516,
      "▁পার্": 4517,
      "▁পুর": 4518,
      "▁পুরু": 4519,
      "▁মন": 4520,
      "▁মো": 4521,
      "▁মৌ": 4522,
      "▁মন্ত্র": 4523,
      "▁মণি": 4524,
      "▁Constituent": 4525,
      "ating": 4526,
      "▁poli": 4527,
      "▁people": 4528,
      "▁Sub": 4529,
      "▁কি": 4530,
      "▁sch": 4531,
      "▁২৬": 4532,
      "▁অ্যান্ড": 4533,
      "▁অক্ষর": 4534,
      "▁పో": 4535,
      "▁పార్": 4536,
      "itary": 4537,
      "▁inter": 4538,
      "ick": 4539,
      "▁Mich": 4540,
      "ారస": 4541,
      "▁তৃত": 4542,
      "▁তথা": 4543,
      "▁এন": 4544,
      "▁হলে": 4545,
      "▁হন।": 4546,
      "▁B.;": 4547,
      "▁দৈ": 4548,
      "▁দিব": 4549,
      "িতা": 4550,
      "িতীয়": 4551,
      "ক্স": 4552,
      "lem": 4553,
      "lection": 4554,
      "▁సౌక": 4555,
      "▁সংবাদ": 4556,
      "▁বিবাহ": 4557,
      "▁రహ": 4558,
      "▁రంగ": 4559,
      "▁మే": 4560,
      "▁మై": 4561,
      "▁మూడ": 4562,
      "▁వారస": 4563,
      "urn": 4564,
      "▁November": 4565,
      "ర్ష": 4566,
      "▁largest": 4567,
      "▁large": 4568,
      "াতা": 4569,
      "▁থাইল": 4570,
      "ility": 4571,
      "నిక": 4572,
      "నిస్తాన్": 4573,
      "▁শি": 4574,
      "ecies": 4575,
      "▁২০০৬": 4576,
      "rofile": 4577,
      "বিভাগ": 4578,
      "▁అభ": 4579,
      "▁చైన": 4580,
      "▁(సా.శ.12": 4581,
      "▁(సా.శ.16": 4582,
      "▁rem": 4583,
      "ికి": 4584,
      "▁যায়।": 4585,
      "▁నడిప": 4586,
      "িলোম": 4587,
      "▁২০১৪": 4588,
      "ঙ্কা": 4589,
      "ন্তর": 4590,
      "▁|আই": 4591,
      "▁|month": 4592,
      "▁తూర్": 4593,
      "▁ఆసియా": 4594,
      "▁ఇంగ్ల": 4595,
      "▁উপদ্বীপ": 4596,
      "▁উপমহাদেশ": 4597,
      "িনি": 4598,
      "▁১৯৪৭": 4599,
      "এসবিন=": 4600,
      "▁রূ": 4601,
      "▁rule": 4602,
      "ত্ত্ব": 4603,
      "ুনিক": 4604,
      "▁চাল": 4605,
      "▁চন্দ্র": 4606,
      "▁బంగ్ల": 4607,
      "▁గో": 4608,
      "▁২০০৭।": 4609,
      "প্রদেশ": 4610,
      "▁(2014": 4611,
      "ন্ত্রণ": 4612,
      "▁dire": 4613,
      "▁উদ্ধৃতিতে": 4614,
      "▁৫৪": 4615,
      "▁విభ": 4616,
      "▁విశ": 4617,
      "▁వివిధ": 4618,
      "ాన్ని": 4619,
      "▁దీ": 4620,
      "▁ext": 4621,
      "269,": 4622,
      "০-এর": 4623,
      "▁శతాబ్": 4624,
      "క్షర": 4625,
      "▁సామ్రాజ్య": 4626,
      "▁ট্র": 4627,
      "▁টাকা": 4628,
      "▁কোম্প": 4629,
      "▁অঞ্চলের": 4630,
      "▁সেন": 4631,
      "▁মহাকা": 4632,
      "▁বৈশিষ্ট": 4633,
      "▁নামে": 4634,
      "▁ওয়েবসাইট": 4635,
      "▁সাম্রাজ": 4636,
      "▁সাময়িকী": 4637,
      "▁Asia:": 4638,
      "▁లక్ష": 4639,
      "▁Region": 4640,
      "▁রয়েছে:": 4641,
      "బడిన": 4642,
      "ాబా": 4643,
      "▁రాష్ట్రాలు": 4644,
      "▁రాష్ట్రాలు,": 4645,
      "వామ": 4646,
      "▁নেপাল": 4647,
      "▁নেতৃত": 4648,
      "▁addition": 4649,
      "▁భారతదేశపు": 4650,
      "▁భారతదేశానికి": 4651,
      "times": 4652,
      "▁ডে": 4653,
      "▁মুঘল": 4654,
      "ক্রমে": 4655,
      "াপ্ত": 4656,
      "▁অবৈধ": 4657,
      "▁partly": 4658,
      "গত।": 4659,
      "গতভাবে": 4660,
      "▁ঘো": 4661,
      "▁ముంబ": 4662,
      "▁ইউনি": 4663,
      "287,26": 4664,
      "▁ప్రధానమంత్ర": 4665,
      "▁মাধ্য": 4666,
      "ীলঙ্কা": 4667,
      "▁অনুস": 4668,
      "▁অনুমোদ": 4669,
      "▁শতাংশ।": 4670,
      "▁|accessmonth": 4671,
      "rade": 4672,
      "াটক": 4673,
      "▁హిందీ": 4674,
      "▁యు": 4675,
      "▁উৎপ": 4676,
      "▁দ্বিতীয়": 4677,
      "▁ఒకటి": 4678,
      "▁right": 4679,
      "▁নিবন্ধসমূহ": 4680,
      "পেক্ষ": 4681,
      "▁আরও": 4682,
      "▁প্রাণী": 4683,
      "▁ప్రపంచంలో": 4684,
      "বাসী": 4685,
      "▁মান:": 4686,
      "▁పరిశ": 4687,
      "▁গঠন": 4688,
      "▁গাঢ়": 4689,
      "▁టె": 4690,
      "▁ভাষায়)।": 4691,
      "day=": 4692,
      "ান্স": 4693,
      "▁উদ্ভি": 4694,
      "▁শতাব্দ": 4695,
      "▁পর্যন্ত": 4696,
      "▁(1,269,": 4697,
      "▁Politics": 4698,
      "▁దేశంలోని": 4699,
      "▁మొదల": 4700,
      "▁3,287,26": 4701,
      "▁\"World": 4702,
      "ত্থান": 4703,
      "ీర్ణ": 4704,
      "▁রিজার্": 4705,
      "▁সূত্র": 4706,
      "▁দিয়ে": 4707,
      "▁সংস্করণ)।": 4708,
      "ప్పటిక": 4709,
      "ব্যবস্থা": 4710,
      "▁పట్టణ": 4711,
      "▁প্রচলিত": 4712,
      "▁থাকে।": 4713,
      "▁బహు": 4714,
      "▁బ్రిటి": 4715,
      "▁বর্তমানে": 4716,
      "thnolog": 4717,
      "▁Arab": 4718,
      "▁గాంధ": 4719,
      "▁পোশাক": 4720,
      "▁বুদ্ধ": 4721,
      "▁জিডি": 4722,
      "▁শিক্ষা": 4723,
      "▁శ్రీలంక": 4724,
      "▁অন্তর্গত।": 4725,
      "▁উন্নয়ন": 4726,
      "▁বিভক্ত": 4727,
      "▁নিয়ন্ত্রণ": 4728,
      "▁ఇండియా": 4729,
      "িয়ানমার": 4730,
      "▁সাক্ষরতার": 4731,
      "▁কর্তৃক": 4732,
      "▁পুরুষ": 4733,
      "▁Michael": 4734,
      "▁তৃতীয়": 4735,
      "▁দিবস": 4736,
      "▁సౌకర్య": 4737,
      "▁থাইল্যান্ড": 4738,
      "িলোমিটার": 4739,
      "▁|আইএসবিন=": 4740,
      "▁|month=": 4741,
      "▁తూర్పు": 4742,
      "▁బంగ్లాదేశ్": 4743,
      "▁মহাকাশ": 4744,
      "▁বৈশিষ্ট্য": 4745,
      "▁|accessmonthday=": 4746,
      "▁শতাব্দীর": 4747,
      "▁(1,269,2": 4748,
      "▁রিজার্ভ": 4749,
      "89": 4750,
      "ae": 4751,
      "dy": 4752,
      "▁X": 4753,
      "▁z": 4754,
      "▁(in": 4755,
      "▁Identi": 4756,
      "▁After": 4757,
      "▁Sharm": 4758,
      "▁P.": 4759,
      "▁Policy": 4760,
      "▁Business": 4761,
      "▁Di": 4762,
      "▁Himalay": 4763,
      "▁Gana": 4764,
      "▁her": 4765,
      "▁List": 4766,
      "▁West": 4767,
      "▁Wolper": 4768,
      "ly,": 4769,
      "adem": 4770,
      "▁rate": 4771,
      "▁composed": 4772,
      "rinc": 4773,
      "arliest": 4774,
      "▁human": 4775,
      "▁Bangladesh": 4776,
      "owever,": 4777,
      "iqu": 4778,
      "ink": 4779,
      "▁(4": 4780,
      "▁old": 4781,
      "▁Institu": 4782,
      "▁pres": 4783,
      "▁Sar": 4784,
      "▁sim": 4785,
      "▁Ter": 4786,
      "▁we": 4787,
      "▁Bollywood": 4788,
      "▁Dra": 4789,
      "▁Div": 4790,
      "aman": 4791,
      "▁Food": 4792,
      "▁V.": 4793,
      "ryan": 4794,
      "ouse": 4795,
      "▁Profile": 4796,
      "▁Constitutional": 4797,
      "ization": 4798,
      "▁978-0-19-8": 4799,
      "▁Minorities,": 4800,
      "▁Heritage": 4801,
      "▁Volume": 4802,
      "▁Division": 4803,
      "0–": 4804,
      "8-": 4805,
      "cul": 4806,
      "gen": 4807,
      "get": 4808,
      "hru": 4809,
      "lam": 4810,
      "ंट": 4811,
      "गण": 4812,
      "जपा": 4813,
      "डु": 4814,
      "पु": 4815,
      "पति": 4816,
      "भाषा": 4817,
      "मो": 4818,
      "मिक": 4819,
      "रण": 4820,
      "रिक": 4821,
      "वल": 4822,
      "शत": 4823,
      "सू": 4824,
      "ाय": 4825,
      "ूबर": 4826,
      "ेट": 4827,
      "▁ऋ": 4828,
      "▁झ": 4829,
      "▁78": 4830,
      "▁(S": 4831,
      "ene": 4832,
      "▁मौ": 4833,
      "andhi": 4834,
      "▁पै": 4835,
      "▁पड़": 4836,
      "ately": 4837,
      "tionary": 4838,
      "▁cap": 4839,
      "▁caus": 4840,
      "▁Mumb": 4841,
      "▁भाग": 4842,
      "▁अफ": 4843,
      "▁अलग": 4844,
      "▁women": 4845,
      "ation,": 4846,
      "रान": 4847,
      "राष्ट्र": 4848,
      "▁जि": 4849,
      "▁जिन": 4850,
      "▁नी": 4851,
      "▁नौ": 4852,
      "▁बार": 4853,
      "▁बने": 4854,
      "▁बड़ा": 4855,
      "िक्": 4856,
      "▁ता": 4857,
      "▁तीस": 4858,
      "▁सेवा": 4859,
      "▁प्रभा": 4860,
      "▁Jain": 4861,
      "▁आग": 4862,
      "▁गठ": 4863,
      "▁गो": 4864,
      "▁लिया": 4865,
      "▁gre": 4866,
      "▁general": 4867,
      "uman": 4868,
      "▁शा": 4869,
      "▁शहर": 4870,
      "▁परंप": 4871,
      "िस्": 4872,
      "क्षण": 4873,
      "▁राजस्थान": 4874,
      "▁यून": 4875,
      "ियार": 4876,
      "ाद्वीप": 4877,
      "▁करना": 4878,
      "▁करता": 4879,
      "▁(2013": 4880,
      "▁१८": 4881,
      "26)": 4882,
      "हाँ": 4883,
      "▁होती": 4884,
      "▁जनगण": 4885,
      "▁निर": 4886,
      "▁हिन्दू": 4887,
      "loy": 4888,
      "▁२००": 4889,
      "▁अपने": 4890,
      "▁था,": 4891,
      "rown": 4892,
      "▁Report": 4893,
      "▁मानसून": 4894,
      "्रीका": 4895,
      "ष्ठ": 4896,
      "ष्ण": 4897,
      "▁दोनों": 4898,
      "▁अमेर": 4899,
      "▁प्रतिशत": 4900,
      "▁European": 4901,
      "पूर्ण": 4902,
      "▁Before": 4903,
      "पालिका": 4904,
      "न्हें": 4905,
      "▁इंडिया": 4906,
      "▁Publishing": 4907,
      "▁अर्थव्यवस्था": 4908,
      "▁शुरू": 4909,
      "▁सदस": 4910,
      "▁बंगाल": 4911,
      "▁स्तर": 4912,
      "▁influ": 4913,
      "▁बौद्ध": 4914,
      "▁Mumbai": 4915,
      "▁परंपरा": 4916,
      "▁जनगणना": 4917,
      "64": 4918,
      "ARC": 4919,
      "TO": 4920,
      "ium": 4921,
      "jar": 4922,
      "pic": 4923,
      "uin": 4924,
      "▁ge": 4925,
      "ined": 4926,
      "ors": 4927,
      "oral": 4928,
      "▁100": 4929,
      "andard": 4930,
      "▁Acc": 4931,
      "▁Country": 4932,
      "▁Sri": 4933,
      "▁Pra": 4934,
      "▁Peng": 4935,
      "▁India;": 4936,
      "▁culture": 4937,
      "▁http": 4938,
      "▁Land": 4939,
      "▁31": 4940,
      "▁38": 4941,
      "▁Fr": 4942,
      "▁Out": 4943,
      "▁reg": 4944,
      "cted": 4945,
      "ocal": 4946,
      "ship": 4947,
      "▁ancient": 4948,
      "▁2007.": 4949,
      "iving": 4950,
      "▁14.": 4951,
      "▁union": 4952,
      "▁1962": 4953,
      "igned": 4954,
      "edic": 4955,
      "▁1971": 4956,
      "904": 4957,
      "▁\"National": 4958,
      "▁Manip": 4959,
      "▁Organ": 4960,
      "▁Literature": 4961,
      "▁Sikh": 4962,
      "▁Penguin": 4963,
      "e.": 4964,
      "val": 4965,
      "ys": 4966,
      "▁<": 4967,
      "▁y": 4968,
      "▁Culture": 4969,
      "▁San": 4970,
      "▁Some": 4971,
      "▁Po": 4972,
      "▁can": 4973,
      "▁census": 4974,
      "▁Te": 4975,
      "▁\"D": 4976,
      "▁well": 4977,
      "riv": 4978,
      "▁39": 4979,
      "▁Fund": 4980,
      "▁46": 4981,
      "aksh": 4982,
      "abad": 4983,
      "ternal": 4984,
      "qual": 4985,
      "▁Rob": 4986,
      "▁disput": 4987,
      "▁Political": 4988,
      "▁(2014).": 4989,
      "-w": 4990,
      "man": 4991,
      "ues": 4992,
      "▁el": 4993,
      "▁through": 4994,
      "▁Inter": 4995,
      "▁pur": 4996,
      "▁Ste": 4997,
      "ictionary": 4998,
      "▁Tw": 4999,
      "▁famil": 5000,
      "▁writ": 5001,
      "▁Day": 5002,
      "lege": 5003,
      "▁last": 5004,
      "▁Gandhi": 5005,
      "raw": 5006,
      "▁W.": 5007,
      "ains": 5008,
      "▁(2019": 5009,
      "-07": 5010,
      "▁Century": 5011,
      "ext": 5012,
      "▁Islam": 5013,
      "▁consid": 5014,
      "▁Asher,": 5015,
      "▁ago": 5016,
      "visions": 5017,
      "▁increased": 5018,
      "▁Nehru": 5019,
      "100": 5020,
      "eat": 5021,
      "oti": 5022,
      "uthor": 5023,
      "vent": 5024,
      "omas": 5025,
      "▁bl": 5026,
      "▁Bur": 5027,
      "▁movement": 5028,
      "ames": 5029,
      "▁194": 5030,
      "▁N.": 5031,
      "▁Gan": 5032,
      "▁ne": 5033,
      "▁Long": 5034,
      "cep": 5035,
      "▁Kal": 5036,
      "own": 5037,
      "▁Change": 5038,
      "▁1991": 5039,
      "ustry": 5040,
      "eval": 5041,
      "▁News": 5042,
      "▁Thomas": 5043,
      "▁Commissioner,": 5044,
      "▁Related": 5045,
      "▁Information": 5046,
      "▁Gujar": 5047,
      "▁dispute": 5048,
      "▁Fisher": 5049,
      "-largest": 5050,
      "▁SAARC": 5051,
      "▁Review": 5052,
      "▁Prime": 5053,
      "-ব": 5054,
      "-২": 5055,
      "-ভারত": 5056,
      ".১": 5057,
      ".৩": 5058,
      ".৬": 5059,
      "0–సా.శ.": 5060,
      "5–సా.శ.": 5061,
      "Ro": 5062,
      "UCN": 5063,
      "ee": 5064,
      "edition": 5065,
      "pl": 5066,
      "way": 5067,
      "ँकि": 5068,
      "ंह": 5069,
      "ंतर": 5070,
      "किम": 5071,
      "गत": 5072,
      "चे": 5073,
      "च्": 5074,
      "चित": 5075,
      "जिक": 5076,
      "तु": 5077,
      "तमान": 5078,
      "थियार": 5079,
      "नत": 5080,
      "पान": 5081,
      "मू": 5082,
      "वे": 5083,
      "वास": 5084,
      "शील": 5085,
      "हन": 5086,
      "िन्न": 5087,
      "ृद्ध": 5088,
      "ैंड": 5089,
      "ोच्च": 5090,
      "४.": 5091,
      "কটি": 5092,
      "কলা": 5093,
      "কগণ": 5094,
      "খি": 5095,
      "খানে": 5096,
      "গঠ": 5097,
      "গানি": 5098,
      "ঘাট": 5099,
      "জরা": 5100,
      "ডার": 5101,
      "তো": 5102,
      "নশীল": 5103,
      "পক": 5104,
      "পীয়": 5105,
      "বঙ্গ": 5106,
      "ভৌ": 5107,
      "ভার্সি": 5108,
      "মস": 5109,
      "ময়": 5110,
      "রত": 5111,
      "লিক": 5112,
      "সহ": 5113,
      "সূচ": 5114,
      "ীড়": 5115,
      "ুগু": 5116,
      "ুষিত": 5117,
      "০%)": 5118,
      "১২": 5119,
      "৩৫": 5120,
      "৪৪": 5121,
      "৫),": 5122,
      "జర": 5123,
      "టం": 5124,
      "టాన్": 5125,
      "డే": 5126,
      "త్యం": 5127,
      "నాల": 5128,
      "మై": 5129,
      "ళ్ల": 5130,
      "వడ": 5131,
      "వచ్చ": 5132,
      "హార": 5133,
      "ామ": 5134,
      "ిలి": 5135,
      "ీత": 5136,
      "ీప": 5137,
      "ుంది.": 5138,
      "ెహ": 5139,
      "ే,": 5140,
      "ైగా": 5141,
      "ౌద్ధ": 5142,
      "▁–సా.శ.": 5143,
      "্রতিক": 5144,
      "▁(F": 5145,
      "য়ের": 5146,
      "য়ান": 5147,
      "▁সকল": 5148,
      "▁সভ্য": 5149,
      "orary": 5150,
      "্যু": 5151,
      "্যাস": 5152,
      "▁পে": 5153,
      "▁বন": 5154,
      "▁বস": 5155,
      "▁বো": 5156,
      "▁বাম": 5157,
      "▁বঙ্গ": 5158,
      "▁বার্": 5159,
      "েরু": 5160,
      "▁मंत्र": 5161,
      "▁मील": 5162,
      "▁पी": 5163,
      "▁पहा": 5164,
      "▁प्ले": 5165,
      "▁মালয়": 5166,
      "▁মতো": 5167,
      "▁Since": 5168,
      "▁কু": 5169,
      "▁কার": 5170,
      "▁কের": 5171,
      "▁কাজ": 5172,
      "▁কলক": 5173,
      "▁কিলোমিটার": 5174,
      "▁sector": 5175,
      "▁অগ্র": 5176,
      "▁অরণ": 5177,
      "▁অঞ্চলে": 5178,
      "▁हथियार": 5179,
      "▁আম": 5180,
      "▁আর্": 5181,
      "▁আর্থ": 5182,
      "▁పొ": 5183,
      "▁పద్ధ": 5184,
      "▁పంజ": 5185,
      "▁పాత్ర": 5186,
      "▁పైగా": 5187,
      "▁cultural": 5188,
      "▁Tel": 5189,
      "▁भो": 5190,
      "▁अल्": 5191,
      "ాలా": 5192,
      "ాలీ": 5193,
      "ాలకు": 5194,
      "▁এলা": 5195,
      "▁এদেশ": 5196,
      "▁প্রস": 5197,
      "▁প্রত্য": 5198,
      "▁প্রভাব": 5199,
      "▁ওড়": 5200,
      "▁air": 5201,
      "▁নৌ": 5202,
      "▁নোব": 5203,
      "ৃতি": 5204,
      "▁కిం": 5205,
      "▁দিক": 5206,
      "▁দিল্লি": 5207,
      "▁দ্রুত": 5208,
      "र्दू": 5209,
      "▁व्य": 5210,
      "▁व्यवस्था": 5211,
      "ন্ড": 5212,
      "ন্স": 5213,
      "▁సై": 5214,
      "▁సము": 5215,
      "▁సర్వ": 5216,
      "▁సూచ": 5217,
      "▁बद": 5218,
      "▁बै": 5219,
      "▁बनी": 5220,
      "▁बड़ी": 5221,
      "▁बड़े": 5222,
      "▁বিধান": 5223,
      "▁বিপ্": 5224,
      "▁বিভাগ": 5225,
      "▁మౌ": 5226,
      "న్‌": 5227,
      "▁వహ": 5228,
      "▁వాత": 5229,
      "▁భా": 5230,
      "▁భాగ": 5231,
      "াইন": 5232,
      "ক্ষী": 5233,
      "স্কার": 5234,
      "স্কৃতিক": 5235,
      "స్వామ": 5236,
      "▁near": 5237,
      "లుపు": 5238,
      "నికి": 5239,
      "ামা": 5240,
      "ামান": 5241,
      "▁प्रकार": 5242,
      "▁प्रेस": 5243,
      "▁থেকেই": 5244,
      "▁শুরু": 5245,
      "বিজ্ঞান": 5246,
      "208": 5247,
      "াহি": 5248,
      "▁చి": 5249,
      "ষ্ণ": 5250,
      "▁आई": 5251,
      "লিং": 5252,
      "লিউড": 5253,
      "▁జమ్మ": 5254,
      "–సా.శ.6": 5255,
      "–సా.శ.14": 5256,
      "ిక,": 5257,
      "াবা": 5258,
      "াব্য": 5259,
      "▁उद्य": 5260,
      "▁उर्दू": 5261,
      "▁গুরু": 5262,
      "▁গান্": 5263,
      "▁গড়ে": 5264,
      "▁যথা": 5265,
      "▁ইটাল": 5266,
      "াসম": 5267,
      "▁48": 5268,
      "గా,": 5269,
      "দ্ধির": 5270,
      "vey": 5271,
      "రియా": 5272,
      "ల్ప": 5273,
      "ల్లో": 5274,
      "ల్వే": 5275,
      "▁शक्त": 5276,
      "న్నాయి.": 5277,
      "ेशन": 5278,
      "▁विवाद": 5279,
      "▁|edition": 5280,
      "लावा": 5281,
      "▁తన": 5282,
      "akes": 5283,
      "▁সমগ্র": 5284,
      "▁আইএস": 5285,
      "ास्त": 5286,
      "্প্রতিক": 5287,
      "త్త": 5288,
      "ঙ্গাল": 5289,
      "ঙ্গেয়": 5290,
      "▁राजधान": 5291,
      "ধ্যুষিত": 5292,
      "50)": 5293,
      "▁১৯৭": 5294,
      "▁ফ্র": 5295,
      "▁অনেক": 5296,
      "ियन": 5297,
      "▁चार": 5298,
      "▁चीन": 5299,
      "▁চার": 5300,
      "▁চতু": 5301,
      "▁బా": 5302,
      "▁బౌద్ధ": 5303,
      "০০০": 5304,
      "▁৩৩": 5305,
      "ock": 5306,
      "পিপি": 5307,
      "ablish": 5308,
      "▁१५": 5309,
      "ించే": 5310,
      "నుక": 5311,
      "రుపు": 5312,
      "▁Ancient": 5313,
      "rits": 5314,
      "▁দেশীয়": 5315,
      "▁దాద": 5316,
      "▁సంవ": 5317,
      "▁సంఖ్య": 5318,
      "▁\"Tamil": 5319,
      "▁পরিবহ": 5320,
      "সংক্রান্ত": 5321,
      "▁जाते": 5322,
      "▁(సా.శ.పూ.1200": 5323,
      "▁৯৮": 5324,
      "▁পাঞ্জ": 5325,
      "▁इसी": 5326,
      "▁समूह": 5327,
      "▁৭৪": 5328,
      "▁దేశాలు": 5329,
      "▁वर्तमान": 5330,
      "▁৮৭": 5331,
      "वायु": 5332,
      "▁धी": 5333,
      "াজিক": 5334,
      "▁বৈচিত্র্য": 5335,
      "ন্ধন": 5336,
      "▁(২০০৪)।": 5337,
      "▁(২০০৬)।": 5338,
      "▁Metcalf,": 5339,
      "▁স্ম": 5340,
      "▁স্থান": 5341,
      "▁সাম্প্রতিক": 5342,
      "▁২০২৩": 5343,
      "▁ক্রয়": 5344,
      "ंधी": 5345,
      "ంచి": 5346,
      "র্মসূচ": 5347,
      "ন্নড়": 5348,
      "▁अपनी": 5349,
      "o-pp": 5350,
      "ভূত": 5351,
      "ాసియా": 5352,
      "▁కూడిన": 5353,
      "▁నిర్వ": 5354,
      "▁মুম": 5355,
      "▁মুদ্র": 5356,
      "▁ভূম": 5357,
      "▁ভূগোল": 5358,
      "▁বিজেপি": 5359,
      "विज्ञान": 5360,
      "ीपी": 5361,
      "▁সর্বো": 5362,
      "▁రైల్వే": 5363,
      "▁ইউরো": 5364,
      "▁ইউনিয়": 5365,
      "▁डॉल": 5366,
      "▁जिसके": 5367,
      "▁মাথা": 5368,
      "▁১৯৯১": 5369,
      "▁घोष": 5370,
      "▁किन्तु": 5371,
      "emporary": 5372,
      "पात": 5373,
      "గువ": 5374,
      "ట్లు": 5375,
      "ష్ణ": 5376,
      "▁కాలం": 5377,
      "▁দুটি": 5378,
      "▁বাংলা": 5379,
      "▁దక్షిణాసియా": 5380,
      "▁अंग्रेजी": 5381,
      "▁కోర్": 5382,
      "▁స్వతంత్ర": 5383,
      "▁জনসংখ্যার": 5384,
      "▁(১৯৯৮": 5385,
      "▁প্রাচীনতম": 5386,
      "▁বহি": 5387,
      "▁বিচারে": 5388,
      "পুঞ্জ": 5389,
      "ম্ন": 5390,
      "▁আরব": 5391,
      "▁కొన్ని": 5392,
      "▁చేయ": 5393,
      "▁খ্রিস্ট": 5394,
      "▁युग": 5395,
      "▁পশ্চিমবঙ্গ": 5396,
      "▁৯৭৮-০-": 5397,
      "▁আন্দামান": 5398,
      "▁গঠিত": 5399,
      "▁দেখুন": 5400,
      "कालीन": 5401,
      "రణం": 5402,
      "ావరణం": 5403,
      "▁పుట్ట": 5404,
      "ক্ষমতা": 5405,
      "▁सीमा": 5406,
      "▁जलवायु": 5407,
      "য়োজন": 5408,
      "▁অবস্থিত।": 5409,
      "▁বিস্তার": 5410,
      "▁వేగంగా": 5411,
      "▁ప్రభుత్వం": 5412,
      "▁రాజ్యాలు": 5413,
      "ependent": 5414,
      "▁आधुनिक": 5415,
      "▁रहे": 5416,
      "সলমান": 5417,
      "ెలవు": 5418,
      "–సా.శ.1947)": 5419,
      "▁మొదటి": 5420,
      "शासित": 5421,
      "গোলিক": 5422,
      "ষণা": 5423,
      "▁కార్య": 5424,
      "▁కారణంగా": 5425,
      "▁కలిగి": 5426,
      "▁|nopp": 5427,
      "▁|no-pp": 5428,
      "▁কোনও": 5429,
      "द्योगिकी": 5430,
      "▁ইন্ডিয়া": 5431,
      "ివృద్ధి": 5432,
      "▁আফগানি": 5433,
      "▁তেলুগু": 5434,
      "▁দ্বীপপুঞ্জ": 5435,
      "▁జరిగిన": 5436,
      "▁ఆఫ్ఘ": 5437,
      "▁బెంగాలీ": 5438,
      "▁পরিষেব": 5439,
      "▁ক্ষমতায়": 5440,
      "▁আন্দোলন": 5441,
      "...]": 5442,
      "ृष्ट": 5443,
      "▁कर्ज": 5444,
      "▁(2006).": 5445,
      "▁पार्टी": 5446,
      "▁सहयोग": 5447,
      "▁राजनीतिक": 5448,
      "▁गुजरात": 5449,
      "▁వెబ": 5450,
      "▁భూటాన్": 5451,
      "▁అనేక": 5452,
      "▁গুজরা": 5453,
      "▁পরিচাল": 5454,
      "▁ধ্রুপদি": 5455,
      "▁ఎక్కువగా": 5456,
      "▁కాశ్మీ": 5457,
      "▁కాంగ్రెసు": 5458,
      "▁స్వాతంత్ర్య": 5459,
      "▁মানুষের": 5460,
      "▁सर्वोच्च": 5461,
      "▁विदेशी": 5462,
      "যুগ": 5463,
      "▁সীমান্ত": 5464,
      "▁আধুনিক": 5465,
      "▁জৈন": 5466,
      "▁సమాఖ్య": 5467,
      "▁ప్రస్తుతం": 5468,
      "▁ప్రాచీన": 5469,
      "▁నేపాల్": 5470,
      "▁జాబితా": 5471,
      "▁सितंबर": 5472,
      "▁Valley": 5473,
      "▁हालाँकि": 5474,
      "▁व्याप": 5475,
      "▁widely": 5476,
      "োষ্ঠী": 5477,
      "্রদায়": 5478,
      "▁পার্টি": 5479,
      "▁পুরস্কার": 5480,
      "▁মন্ত্রক": 5481,
      "▁মণিপুর": 5482,
      "▁రహదార": 5483,
      "▁వారసత్వ": 5484,
      "▁শিখ": 5485,
      "▁అభివృద్ధి": 5486,
      "▁ఇంగ్లీ": 5487,
      "▁శతాబ్దం": 5488,
      "▁নেতৃত্বে": 5489,
      "▁ముంబై": 5490,
      "▁ইউনিভার্সি": 5491,
      "▁ప్రధానమంత్రి": 5492,
      "▁মাধ্যমে": 5493,
      "▁অনুমোদিত": 5494,
      "▁নিবন্ধসমূহ:": 5495,
      "▁పరిశ్రమ": 5496,
      "thnologue": 5497,
      "▁గాంధీ": 5498,
      "▁জিডিপি": 5499,
      "▁পুরুষদের": 5500,
      "▁Territ": 5501,
      "▁नौसेना": 5502,
      "▁प्रभाव": 5503,
      "▁गठबंधन": 5504,
      "▁यूनिव": 5505,
      "▁Poems": 5506,
      "▁Robb": 5507,
      "च्छ": 5508,
      "▁प्लेट": 5509,
      "▁অরণ্য": 5510,
      "▁নোবেল": 5511,
      "▁বিপ্লব": 5512,
      "▁వాతావరణం": 5513,
      "▁జమ్మూ": 5514,
      "▁उद्यान": 5515,
      "▁ইটালিক": 5516,
      "▁|edition=": 5517,
      "▁পরিবহন": 5518,
      "▁(సా.శ.పూ.1200–సా.శ.పూ.": 5519,
      "▁నిర్వహ": 5520,
      "▁মুদ্রা": 5521,
      "▁ইউরোপীয়": 5522,
      "▁डॉलर": 5523,
      "▁|nopp=": 5524,
      "▁|no-pp=": 5525,
      "▁আফগানিস্তান": 5526,
      "-9": 5527,
      "84": 5528,
      "9–": 5529,
      "bol": 5530,
      "ians": 5531,
      "udi": 5532,
      "▁vers": 5533,
      "though": 5534,
      "ers,": 5535,
      "▁(C": 5536,
      "▁(ed.).": 5537,
      "▁these": 5538,
      "▁Aust": 5539,
      "▁Cin": 5540,
      "▁power": 5541,
      "ital": 5542,
      "▁Madh": 5543,
      "omic": 5544,
      "▁Dun": 5545,
      "▁Democracy": 5546,
      "▁Home": 5547,
      "▁Gra": 5548,
      "ili": 5549,
      "▁eastern": 5550,
      "▁First": 5551,
      "▁gen": 5552,
      "▁forest": 5553,
      "▁art": 5554,
      "▁when": 5555,
      "ained": 5556,
      "ustan": 5557,
      "▁63": 5558,
      "li,": 5559,
      "▁att": 5560,
      "ultan": 5561,
      "uccess": 5562,
      "▁contrib": 5563,
      "▁406": 5564,
      "▁agric": 5565,
      "▁Talbot,": 5566,
      "▁Dyson,": 5567,
      "▁coast": 5568,
      "arliament": 5569,
      "▁including": 5570,
      "▁territory": 5571,
      "▁Chandra": 5572,
      "▁Atl": 5573,
      "▁emerg": 5574,
      "/b": 5575,
      "31": 5576,
      "gg": 5577,
      "gar": 5578,
      "ras": 5579,
      "wn": 5580,
      "y-": 5581,
      "▁0": 5582,
      "▁Z": 5583,
      "▁ent": 5584,
      "erl": 5585,
      "ale": 5586,
      "tice": 5587,
      "▁prom": 5588,
      "▁sour": 5589,
      "▁\"K": 5590,
      "▁fig": 5591,
      "▁bord": 5592,
      "le,": 5593,
      "▁histor": 5594,
      "ection": 5595,
      "▁34": 5596,
      "▁Fact": 5597,
      "196": 5598,
      "aka": 5599,
      "▁rit": 5600,
      "▁1997": 5601,
      "anag": 5602,
      "▁contin": 5603,
      "▁India.gov.in": 5604,
      "times.": 5605,
      "▁plain": 5606,
      "▁Minister": 5607,
      "▁use": 5608,
      "▁Forest": 5609,
      "▁Music": 5610,
      "ographical": 5611,
      "▁northernmost": 5612,
      "▁Environmental": 5613,
      "▁Supreme": 5614,
      "atistical": 5615,
      "reedom": 5616,
      "▁Factbook": 5617,
      "%,": 5618,
      "2%": 5619,
      "ief": 5620,
      "kh": 5621,
      "ma": 5622,
      "▁est": 5623,
      "er=": 5624,
      "anding": 5625,
      "▁A.": 5626,
      "▁poll": 5627,
      "▁prop": 5628,
      "ref": 5629,
      "ret": 5630,
      "▁\"I": 5631,
      "▁Dictionary": 5632,
      "olk": 5633,
      "bert": 5634,
      "aving": 5635,
      "▁Cont": 5636,
      "key": 5637,
      "▁Short": 5638,
      "ervation": 5639,
      "▁across": 5640,
      "▁978-1-107-": 5641,
      "▁Dravi": 5642,
      "▁establish": 5643,
      "76": 5644,
      "7).": 5645,
      "81-": 5646,
      "99": 5647,
      "II": 5648,
      "K.": 5649,
      "aim": 5650,
      "ck": 5651,
      "min": 5652,
      "ones": 5653,
      "en,": 5654,
      "enth": 5655,
      "educ": 5656,
      "▁Cather": 5657,
      "▁Social": 5658,
      "▁Mat": 5659,
      "▁Middle": 5660,
      "▁follow": 5661,
      "▁would": 5662,
      "etary": 5663,
      "amed": 5664,
      "chit": 5665,
      "▁led": 5666,
      "▁lik": 5667,
      "▁Ganges": 5668,
      "▁Earth": 5669,
      "▁now": 5670,
      "▁east": 5671,
      "▁develop": 5672,
      "ects": 5673,
      "▁Jana": 5674,
      "▁978-81-": 5675,
      "ially": 5676,
      "oss": 5677,
      "▁500": 5678,
      "illenn": 5679,
      "onstitutional": 5680,
      "▁species": 5681,
      "▁Alan": 5682,
      "2-2": 5683,
      "▁1950.": 5684,
      "▁Assam": 5685,
      "▁espec": 5686,
      "▁Company": 5687,
      "▁Anthem": 5688,
      "▁support": 5689,
      "▁Buddhist": 5690,
      "▁Persian": 5691,
      "▁Academ": 5692,
      "▁occup": 5693,
      "▁Barb": 5694,
      "fication": 5695,
      "▁Classical": 5696,
      "▁Urdu": 5697,
      "▁direct": 5698,
      "▁Wolpert": 5699,
      "▁written": 5700,
      "▁Atlas": 5701,
      "▁Catherine": 5702,
      "▁especially": 5703,
      "-प": 5704,
      "0)": 5705,
      "5)": 5706,
      "6,": 5707,
      "Kulke": 5708,
      "a;": 5709,
      "bs": 5710,
      "face": 5711,
      "ham": 5712,
      "lion": 5713,
      "mu": 5714,
      "oor": 5715,
      "ंका": 5716,
      "इन": 5717,
      "क्र": 5718,
      "कृत": 5719,
      "खा": 5720,
      "खंड": 5721,
      "खण्ड": 5722,
      "गोल": 5723,
      "डिया": 5724,
      "द्व": 5725,
      "धार": 5726,
      "बो": 5727,
      "भिन्न": 5728,
      "मार": 5729,
      "यन": 5730,
      "र्य": 5731,
      "लिम": 5732,
      "लंका": 5733,
      "श्य": 5734,
      "शीन": 5735,
      "हार": 5736,
      "िज": 5737,
      "िज़": 5738,
      "ुरा": 5739,
      "ूर": 5740,
      "ेड": 5741,
      "ैली": 5742,
      "ौद्योगिकी": 5743,
      "▁६": 5744,
      "▁टे": 5745,
      "▁कम": 5746,
      "▁कह": 5747,
      "▁(A": 5748,
      "▁(क": 5749,
      "▁सभा": 5750,
      "▁सिक्": 5751,
      "▁मी": 5752,
      "▁माल": 5753,
      "▁Aks": 5754,
      "▁पहु": 5755,
      "ats": 5756,
      "▁popular": 5757,
      "▁Sang": 5758,
      "▁c.": 5759,
      "▁अब": 5760,
      "▁bi": 5761,
      "▁based": 5762,
      "▁www": 5763,
      "▁जय": 5764,
      "▁जै": 5765,
      "▁जम्": 5766,
      "र्सि": 5767,
      "▁वाल": 5768,
      "▁निय": 5769,
      "▁दृष्ट": 5770,
      "urg": 5771,
      "▁तो": 5772,
      "▁त्र": 5773,
      "▁linguistic": 5774,
      "ily": 5775,
      "▁history": 5776,
      "▁प्रौद्योगिकी": 5777,
      "▁WTO": 5778,
      "▁की।": 5779,
      "▁आय": 5780,
      "▁गए": 5781,
      "▁गति": 5782,
      "▁गंगा": 5783,
      "▁उस": 5784,
      "▁उच्च": 5785,
      "▁उद्योग": 5786,
      "▁लाख": 5787,
      "न्ध": 5788,
      "न्स": 5789,
      "ेशिया": 5790,
      "ody": 5791,
      "ासागर": 5792,
      "ियान": 5793,
      "▁चल": 5794,
      "▁साक्षर": 5795,
      "स्थ": 5796,
      "स्लिम": 5797,
      "▁१२": 5798,
      "alled": 5799,
      "▁1999": 5800,
      "▁अभी": 5801,
      "▁जाति": 5802,
      "त्तीस": 5803,
      "▁जनता": 5804,
      "▁भाषाएं": 5805,
      "▁वर्ण": 5806,
      "वाँ": 5807,
      "ृत्य": 5808,
      "rugg": 5809,
      "▁CITEREFKulke": 5810,
      "▁अपना": 5811,
      "▁adop": 5812,
      "erala": 5813,
      "▁उत्तरा": 5814,
      "ignific": 5815,
      "▁१९७": 5816,
      "▁१९८": 5817,
      "दीव": 5818,
      "▁स्थल": 5819,
      "2-5": 5820,
      "▁अधिकार": 5821,
      "▁द्वीप": 5822,
      "▁बहुमत": 5823,
      "▁छत्तीस": 5824,
      "▁उपमह": 5825,
      "amental": 5826,
      "▁Compan": 5827,
      "ँची": 5828,
      "odiversity": 5829,
      "▁Harper": 5830,
      "रोप": 5831,
      "▁अमरी": 5832,
      "▁पश्चिमी": 5833,
      "▁जीवन": 5834,
      "thermund2004": 5835,
      "ोर्ट": 5836,
      "ोर्ड": 5837,
      "▁आधार": 5838,
      "▁वायु": 5839,
      "▁Natural": 5840,
      "▁Hindus": 5841,
      "▁यूरोप": 5842,
      "▁गांधी": 5843,
      "▁लेकर": 5844,
      "पेक्ष": 5845,
      "▁भाजपा": 5846,
      "▁विस्तृत": 5847,
      "▁उत्पाद": 5848,
      "▁जबकि": 5849,
      "▁श्रीलंका": 5850,
      "▁Indo-Aryan": 5851,
      "▁Institute": 5852,
      "▁अफ्रीका": 5853,
      "▁According": 5854,
      "Rothermund2004": 5855,
      "▁धीरे": 5856,
      "▁व्यापार": 5857,
      "▁Territory": 5858,
      "▁यूनिवर्सि": 5859,
      "▁सिक्किम": 5860,
      "▁जम्मू": 5861,
      "▁साक्षरता": 5862,
      "ruggle": 5863,
      "▁CITEREFKulkeRothermund2004": 5864,
      "▁उपमहाद्वीप": 5865,
      "▁यूनिवर्सिटी": 5866,
      "92": 5867,
      "come": 5868,
      "ey": 5869,
      "ful": 5870,
      "ling": 5871,
      "oot": 5872,
      "–19": 5873,
      "ortion": 5874,
      "aries": 5875,
      "▁118": 5876,
      "▁Sur": 5877,
      "▁civil": 5878,
      "▁Moh": 5879,
      "leav": 5880,
      "▁33": 5881,
      "▁UN": 5882,
      "irm": 5883,
      "▁reach": 5884,
      "▁447": 5885,
      "epart": 5886,
      "1-0": 5887,
      "▁2011\"": 5888,
      "ards": 5889,
      "▁\"India's": 5890,
      "ervice": 5891,
      "▁Spring": 5892,
      "▁commun": 5893,
      "urrent": 5894,
      "▁(NIC": 5895,
      "▁Plateau": 5896,
      "▁Dravidian": 5897,
      "epartment": 5898,
      "-1": 5899,
      "-2": 5900,
      "-f": 5901,
      "210": 5902,
      "5%": 5903,
      "Hindi": 5904,
      "cent": 5905,
      "ha,": 5906,
      "iri": 5907,
      "oa": 5908,
      "tell": 5909,
      "vol": 5910,
      "ants": 5911,
      "ines": 5912,
      "thia": 5913,
      "▁third": 5914,
      "arv": 5915,
      "▁Age": 5916,
      "▁Car": 5917,
      "▁Cultural": 5918,
      "▁Cyn": 5919,
      "▁Civil": 5920,
      "▁prac": 5921,
      "asa": 5922,
      "asing": 5923,
      "▁cre": 5924,
      "▁cook": 5925,
      "▁indi": 5926,
      "▁Movement": 5927,
      "▁Tri": 5928,
      "▁bu": 5929,
      "rition": 5930,
      "▁Bure": 5931,
      "▁Rec": 5932,
      "ury,": 5933,
      "▁li": 5934,
      "raven": 5935,
      "▁Eight": 5936,
      "▁nuclear": 5937,
      "operation": 5938,
      "ecture": 5939,
      "▁Federal": 5940,
      "▁Chang": 5941,
      "▁Chap": 5942,
      "utrition": 5943,
      "▁Ved": 5944,
      "▁Vedic": 5945,
      "▁rul": 5946,
      "▁before": 5947,
      "duc": 5948,
      "ability": 5949,
      "▁(2017": 5950,
      "anath": 5951,
      "▁India\";": 5952,
      "ineering": 5953,
      "स्तान": 5954,
      "▁(2007).": 5955,
      "▁1965": 5956,
      "▁century,": 5957,
      "▁office": 5958,
      "▁become": 5959,
      "▁sever": 5960,
      "▁Guide": 5961,
      "80904": 5962,
      "▁xx": 5963,
      "ography": 5964,
      "▁rock": 5965,
      "▁growth": 5966,
      "▁978-0-521-80904": 5967,
      "▁military": 5968,
      "▁employ": 5969,
      "▁political": 5970,
      "▁Identity": 5971,
      "▁influen": 5972,
      "chitecture": 5973,
      "illennium": 5974,
      "▁Cynthia": 5975,
      "▁Bureau": 5976,
      "▁(2017).": 5977,
      "▁978-0-521-80904-7": 5978,
      "\",": 5979,
      ",৬": 5980,
      "-প": 5981,
      "-৪": 5982,
      "-29": 5983,
      "-এর": 5984,
      ".పూ.": 5985,
      "1=": 5986,
      "2=": 5987,
      "4)": 5988,
      "RIC": 5989,
      "cover": 5990,
      "eff": 5991,
      "f.org": 5992,
      "ix": 5993,
      "kar": 5994,
      "lar": 5995,
      "ning": 5996,
      "nam": 5997,
      "publish": 5998,
      "s–": 5999,
      "ংহ": 6000,
      "এ)": 6001,
      "ওয়ে": 6002,
      "ওয়া": 6003,
      "কু": 6004,
      "কো": 6005,
      "খিত": 6006,
      "খাত": 6007,
      "খ্যান": 6008,
      "চনা": 6009,
      "ছু": 6010,
      "জে": 6011,
      "টন": 6012,
      "টের": 6013,
      "ঠি": 6014,
      "ঠে": 6015,
      "ঠে।": 6016,
      "ত্যা": 6017,
      "দু": 6018,
      "দর্": 6019,
      "ধা": 6020,
      "ধনশীল": 6021,
      "নাত": 6022,
      "ফি": 6023,
      "বর": 6024,
      "বস": 6025,
      "বৈ": 6026,
      "বরা": 6027,
      "ব্যা": 6028,
      "ভর": 6029,
      "ভে": 6030,
      "ভৃতি": 6031,
      "ম্ম": 6032,
      "মাত্র": 6033,
      "যান": 6034,
      "যায়ী": 6035,
      "র্যা": 6036,
      "রপেক্ষ": 6037,
      "লু": 6038,
      "লো": 6039,
      "শ্ব": 6040,
      "ষিক": 6041,
      "হেরু": 6042,
      "াউ": 6043,
      "াবি": 6044,
      "াণী": 6045,
      "ীণ": 6046,
      "ুলা": 6047,
      "ে,": 6048,
      "েডার": 6049,
      "োপ": 6050,
      "োহ": 6051,
      "োতি": 6052,
      "োসি": 6053,
      "ৌদ্ধ": 6054,
      "ৌগোলিক": 6055,
      "০।": 6056,
      "০৭": 6057,
      "২২": 6058,
      "৩৯": 6059,
      "৩)।": 6060,
      "৪৮": 6061,
      "৪),": 6062,
      "৪১৫": 6063,
      "৫২": 6064,
      "৬,": 6065,
      "৬৬": 6066,
      "৭),": 6067,
      "৮৯": 6068,
      "৯.৮": 6069,
      "ంక": 6070,
      "కో": 6071,
      "గణ": 6072,
      "గే": 6073,
      "గోళ": 6074,
      "చ్": 6075,
      "జె": 6076,
      "జ్య": 6077,
      "టో": 6078,
      "డీ": 6079,
      "దన": 6080,
      "దర": 6081,
      "దా": 6082,
      "ద్య": 6083,
      "నై": 6084,
      "బంధ": 6085,
      "భారత": 6086,
      "భాగ": 6087,
      "మాలు": 6088,
      "మార్": 6089,
      "యం": 6090,
      "రాజ": 6091,
      "లీ": 6092,
      "లమె": 6093,
      "ళుక": 6094,
      "వె": 6095,
      "వ్య": 6096,
      "వర్": 6097,
      "వరి": 6098,
      "వలం": 6099,
      "షన్": 6100,
      "షియా": 6101,
      "సై": 6102,
      "ా,": 6103,
      "ాక": 6104,
      "ాఖ": 6105,
      "ాణ": 6106,
      "ాప": 6107,
      "ాపు": 6108,
      "ాస్వామ": 6109,
      "ాళుక": 6110,
      "ిజ": 6111,
      "ియ": 6112,
      "ీక": 6113,
      "ీస్": 6114,
      "ు.": 6115,
      "ువు": 6116,
      "ూరు": 6117,
      "ెడ్": 6118,
      "′′": 6119,
      "▁ঠ": 6120,
      "▁ষ": 6121,
      "▁ఘ": 6122,
      "▁టి": 6123,
      "▁దిన": 6124,
      "▁very": 6125,
      "onwe": 6126,
      "▁(উ": 6127,
      "য়ার": 6128,
      "▁সফ": 6129,
      "▁Im": 6130,
      "ened": 6131,
      "্যে": 6132,
      "্যোতি": 6133,
      "▁পঞ্চ": 6134,
      "▁পতা": 6135,
      "▁পুন": 6136,
      "▁1-": 6137,
      "▁বল": 6138,
      "▁বেশ": 6139,
      "▁বেস": 6140,
      "▁বন্য": 6141,
      "▁বৌদ্ধ": 6142,
      "েরি": 6143,
      "isl": 6144,
      "▁মনে": 6145,
      "▁মারা": 6146,
      "▁মাইল": 6147,
      "▁মরু": 6148,
      "▁মর্যা": 6149,
      "▁ভুট": 6150,
      "▁ভরত": 6151,
      "▁ভৌগোলিক": 6152,
      "র্ষ": 6153,
      "▁Co": 6154,
      "ater,": 6155,
      "ান্ড": 6156,
      "ানগর": 6157,
      "▁কয়": 6158,
      "▁কয়ে": 6159,
      "▁কর্মসূচ": 6160,
      "▁কন্নড়": 6161,
      "▁PM": 6162,
      "▁অফ": 6163,
      "▁অভ": 6164,
      "▁অ্যা": 6165,
      "▁আক": 6166,
      "▁আদি": 6167,
      "▁আবার": 6168,
      "▁আয়োজ": 6169,
      "▁పత": 6170,
      "▁పద": 6171,
      "▁పూ": 6172,
      "▁పర్య": 6173,
      "▁court": 6174,
      "▁ভারত-": 6175,
      "▁ভারত–": 6176,
      "▁ভারতকে": 6177,
      "▁Mass": 6178,
      "▁tril": 6179,
      "▁Tay": 6180,
      "▁ত্রু": 6181,
      "ాలతో": 6182,
      "్యత": 6183,
      "్యా": 6184,
      "్యాల": 6185,
      "్యాయ": 6186,
      "్యులు": 6187,
      "▁এসে": 6188,
      "ারিদ্র": 6189,
      "▁প্রব": 6190,
      "▁প্রকৃত": 6191,
      "▁প্রথা": 6192,
      "▁প্রদেশ": 6193,
      "▁প্রেস": 6194,
      "▁প্রবর্ত": 6195,
      "▁প্রবেশ": 6196,
      "▁প্রদান": 6197,
      "▁প্রয়োজন": 6198,
      "▁প্রভৃতি": 6199,
      "outhern": 6200,
      "▁ওঠে।": 6201,
      "্বই": 6202,
      "্বভৌ": 6203,
      "▁না": 6204,
      "▁নরে": 6205,
      "▁ন্যা": 6206,
      "▁নগর": 6207,
      "▁BRIC": 6208,
      "▁জীব": 6209,
      "▁জম্ম": 6210,
      "▁জ্যোতি": 6211,
      "▁উভ": 6212,
      "▁উত্থান": 6213,
      "▁উঠে": 6214,
      "▁Dem": 6215,
      "ৃত।": 6216,
      ".శ.)": 6217,
      "▁may": 6218,
      "▁కన్న": 6219,
      "▁కంప": 6220,
      "▁দারিদ্র": 6221,
      "িত্ত": 6222,
      "ালম": 6223,
      "ালে": 6224,
      "ক্ট": 6225,
      "▁সংক্রান্ত": 6226,
      "▁বিগত": 6227,
      "▁বিলিয়ন": 6228,
      "▁రకాల": 6229,
      "কেন্দ্র": 6230,
      "▁మా": 6231,
      "▁మాల్": 6232,
      "▁మణి": 6233,
      "▁1901": 6234,
      "న్మ": 6235,
      "▁వై": 6236,
      "▁వంట": 6237,
      "▁Nob": 6238,
      "▁భౌ": 6239,
      "াইক্": 6240,
      "▁today": 6241,
      "ర్గ": 6242,
      "ర్కొ": 6243,
      "▁Gol": 6244,
      "টি:": 6245,
      "ক্ষে": 6246,
      "ক্ষিত": 6247,
      "ক্ষাদ": 6248,
      "▁Early": 6249,
      "য়েত": 6250,
      "▁থাক": 6251,
      "స్లా": 6252,
      "నియన్": 6253,
      "▁however,": 6254,
      "▁শৈলী": 6255,
      "▁ప్రారం": 6256,
      "▁అవ": 6257,
      "▁అహ": 6258,
      "▁అని": 6259,
      "▁అరు": 6260,
      "▁అస్సా": 6261,
      "▁అక్షర": 6262,
      "▁Kenn": 6263,
      "▁చాళుక": 6264,
      "ষ্টি": 6265,
      "▁(సా.శ.3": 6266,
      "▁(సా.శ.6": 6267,
      "▁(సా.శ.10": 6268,
      "লিশ": 6269,
      "▁జంత": 6270,
      "▁జన్మ": 6271,
      "▁গঙ্গ": 6272,
      "▁গবে": 6273,
      "▁నాలు": 6274,
      "▁న్యాయ": 6275,
      "▁ইসল": 6276,
      "imf.org": 6277,
      "క్నాల": 6278,
      "▁ఉండ": 6279,
      "▁২০১৫": 6280,
      "▁২০১৭": 6281,
      "ాత్మ": 6282,
      "ండమ": 6283,
      "ండ్": 6284,
      "্যাগ": 6285,
      "্যাট": 6286,
      "রিটি": 6287,
      "▁|publish": 6288,
      "▁తెలు": 6289,
      "▁ఆగ": 6290,
      "▁ఆక్రమ": 6291,
      "▁নিম্ন": 6292,
      "▁নিদর্": 6293,
      "▁নিরপেক্ষ": 6294,
      "াদের": 6295,
      "ాయక": 6296,
      "▁ఇవ": 6297,
      "▁ఇన్‌": 6298,
      "▁ఇస్లా": 6299,
      "▁সময়ে": 6300,
      "▁সম্ম": 6301,
      "▁উপগ্রহ": 6302,
      "ia,": 6303,
      "ode": 6304,
      "ক্তির": 6305,
      "▁খনি": 6306,
      "▁খেল": 6307,
      "కుంట": 6308,
      "ానా": 6309,
      "ধানী": 6310,
      "▁Art": 6311,
      "50–సా.శ.": 6312,
      "▁ফিল": 6313,
      "▁ফেডার": 6314,
      "▁জনগণ": 6315,
      "స్తారు": 6316,
      "స్తారు.": 6317,
      "▁রু": 6318,
      "▁রক্ষণ": 6319,
      "▁রন্ধন": 6320,
      "▁করেছে": 6321,
      "▁করেছিল": 6322,
      "▁করেন।": 6323,
      "▁রাজধানী": 6324,
      "▁বাঘ": 6325,
      "▁৩৬": 6326,
      "overty": 6327,
      "পিছু": 6328,
      "▁হয়,": 6329,
      "▁হয়নি": 6330,
      "▁77.": 6331,
      "প্রাণী": 6332,
      "1389": 6333,
      "18)": 6334,
      "▁মধ্যযুগ": 6335,
      "ুরো": 6336,
      "▁৫১": 6337,
      "▁দেশজ": 6338,
      "ములో": 6339,
      "▁any": 6340,
      "▁సంక": 6341,
      "▁సంఘ": 6342,
      "▁సంప్రదాయ": 6343,
      "▁సామాను": 6344,
      "టిలో": 6345,
      "▁ఒడి": 6346,
      "কাশ": 6347,
      "▁హర": 6348,
      "▁హిమ": 6349,
      "▁পরিবর্ত": 6350,
      "▁পরিবেশ": 6351,
      "▁সংস্কার": 6352,
      "সংখ্যান": 6353,
      "▁శెలవు": 6354,
      "াগরে": 6355,
      "▁ভাষার": 6356,
      "▁(సా.శ.పూ.7": 6357,
      "▁পাখি": 6358,
      "▁ট্যাগ": 6359,
      "▁স্বীকৃত": 6360,
      "▁বৃদ্ধির": 6361,
      "▁রাজ্যে": 6362,
      "▁রাজ্যের": 6363,
      "వి.": 6364,
      "▁దేశానికి": 6365,
      "▁దేశాలలో": 6366,
      "াবেক্ষণ": 6367,
      "ంటే": 6368,
      "▁মহাস": 6369,
      "▁ఉన్నారు.": 6370,
      "আইডি": 6371,
      "▁বৈদ": 6372,
      "▁বৈধ": 6373,
      "▁নামের": 6374,
      "▁(২০০১": 6375,
      "▁(২০০৩)।": 6376,
      "▁৬৩": 6377,
      "▁স্ট": 6378,
      "▁স্থ": 6379,
      "దీవులు": 6380,
      "▁చెందిన": 6381,
      "▁చెందు": 6382,
      "▁ব্যবস্থ": 6383,
      "▁ব্যবহ": 6384,
      "▁ব্যুরো": 6385,
      "▁রয়েছে।": 6386,
      "▁Commonwe": 6387,
      "▁రాష్ట్రాల": 6388,
      "–సా.శ.పూ.3": 6389,
      "▁ఆర్థ": 6390,
      "▁regional": 6391,
      "নিবেশ": 6392,
      "చ్చే": 6393,
      "▁లోని": 6394,
      "▁లోక్‌": 6395,
      "▁বর্ণ": 6396,
      "▁নেহেরু": 6397,
      "నాడు": 6398,
      "ాస్యత": 6399,
      "▁28.6": 6400,
      "▁Chin,": 6401,
      "ঞ্জি": 6402,
      "সম্প": 6403,
      "▁প্রতিযোগ": 6404,
      "▁প্রস্তর": 6405,
      "▁দেয়।": 6406,
      "পিডিয়া": 6407,
      "ক্ষিণাত": 6408,
      "▁నిర్": 6409,
      "▁ভূখণ্ড": 6410,
      "▁বিজয়ী": 6411,
      "ষ্ঠিত": 6412,
      "ports": 6413,
      "বাহী": 6414,
      "▁১০৫": 6415,
      "▁party": 6416,
      "▁పాక్": 6417,
      "▁కేవలం": 6418,
      "▁రైళ్ల": 6419,
      "▁গণিত": 6420,
      "▁পশু": 6421,
      "▁speak": 6422,
      "▁1970": 6423,
      "24)": 6424,
      "▁সম্প্রদায়": 6425,
      "టుంబ": 6426,
      "ప్రదేశ్": 6427,
      "మైనది.": 6428,
      "▁অধি": 6429,
      "▁অধিক": 6430,
      "▁হয়েছিল": 6431,
      "▁অনুযায়ী": 6432,
      "▁1980": 6433,
      "డ్డు": 6434,
      "▁కుటుంబ": 6435,
      "▁భారతదేశంలోని": 6436,
      "▁దక్షిణాన": 6437,
      "▁యుగ": 6438,
      "▁এশিয়া": 6439,
      "▁এশিয়ান": 6440,
      "▁নয়;": 6441,
      "▁కోట్ల": 6442,
      "▁క్రీ.శ.)": 6443,
      "▁দ্বি": 6444,
      "▁দ্বারা": 6445,
      "▁ধর্মীয়": 6446,
      "কালের": 6447,
      "কালীন": 6448,
      "▁ব্যাঙ্ক": 6449,
      "▁ব্যাপক": 6450,
      "58)": 6451,
      "▁Johnson": 6452,
      "ম্ভ": 6453,
      "ম্‌": 6454,
      "▁వచ్చిన": 6455,
      "▁যুদ্ধের": 6456,
      "▁পশ্চিমঘাট": 6457,
      "▁সাধারণতন্ত্র": 6458,
      "▁৯৭৮-১-": 6459,
      "▁డాల": 6460,
      "▁মানব": 6461,
      "▁పరిపాల": 6462,
      "▁গাছ": 6463,
      "▁গাঙ্গেয়": 6464,
      "চিত্র্যের": 6465,
      "রোধ": 6466,
      "ణిజ్య": 6467,
      "▁লাভ": 6468,
      "▁লাক্ষাদ": 6469,
      "বিদ্যালয়": 6470,
      "▁జనగణ": 6471,
      "▁జనవరి": 6472,
      "▁সংসদীয়": 6473,
      "▁\"Profile": 6474,
      "▁বেঙ্গাল": 6475,
      "▁వంటి": 6476,
      "▁వంశం": 6477,
      "▁వాణిజ్య": 6478,
      "▁వేద": 6479,
      "▁শতকে": 6480,
      "▁ఉపఖండ": 6481,
      "▁గుర్": 6482,
      "▁గుజర": 6483,
      "▁পর্যটন": 6484,
      "▁స్థానంలో": 6485,
      "▁పాకిస్థాన్": 6486,
      "▁বাংলাদেশ–": 6487,
      "▁বাণিজ্যিক": 6488,
      "ওয়ায়": 6489,
      "▁লিঙ্ক": 6490,
      "▁দলের": 6491,
      "▁শক্তিধর": 6492,
      "▁খেলাধ": 6493,
      "▁পর্বতমাল": 6494,
      "▁জনপ্রিয়।": 6495,
      "▁(2018).": 6496,
      "ত্বপূর্ণ": 6497,
      "ারীকরণ": 6498,
      "▁মালদ্বীপ": 6499,
      "▁ইন্দো": 6500,
      "▁సాంప్రదాయ": 6501,
      "ిత్రక": 6502,
      "▁লোকসভা": 6503,
      "▁క్రీడలు": 6504,
      "▁যুক্তরাষ্ট্রীয়": 6505,
      "▁খ্রিষ্টীয়": 6506,
      "▁খ্রিষ্টপূর্ব": 6507,
      "adhy": 6508,
      "vidence": 6509,
      "▁পাতের": 6510,
      "▁সংরক্ষণের": 6511,
      "▁మాత్రం": 6512,
      "▁শ্রীলঙ্কা": 6513,
      "রেখার": 6514,
      "▁ఉంటాయి.": 6515,
      "▁ఆధార": 6516,
      "▁পরিষদ": 6517,
      "▁আন্দোলনের": 6518,
      "▁సింధు": 6519,
      "▁తమిళం": 6520,
      "▁తమిళనాడు": 6521,
      "িউরিটি": 6522,
      "రికత": 6523,
      "▁ద్వీప": 6524,
      "▁(ইংরেজি": 6525,
      "▁পিএম": 6526,
      "▁উদারীকরণ": 6527,
      "▁দাক্ষিণাত": 6528,
      "▁సంగీతం": 6529,
      "▁వర్గ": 6530,
      "▁জাতিসংঘ": 6531,
      "ుకోవడ": 6532,
      "▁হিমালয়ের": 6533,
      "▁ఇండో–": 6534,
      "▁Jammu": 6535,
      "▁সিকিউরিটি": 6536,
      "▁পুলিশ": 6537,
      "▁పరంగా": 6538,
      "▁নিকট": 6539,
      "▁సిక్కు": 6540,
      "▁বিষয়": 6541,
      "▁বিদেশি": 6542,
      "▁বিবেচিত": 6543,
      "▁రోడ్డు": 6544,
      "▁শব্দটি": 6545,
      "▁నాగరికత": 6546,
      "▁সাংস্কৃতিক": 6547,
      "▁సినిమా": 6548,
      "▁శాస్త్రం": 6549,
      "▁different": 6550,
      "▁সার্বভৌ": 6551,
      "▁মোদী": 6552,
      "▁పార్లమె": 6553,
      "▁হলেন": 6554,
      "▁మూడు": 6555,
      "▁నడిపించ": 6556,
      "▁ট্রফি": 6557,
      "▁কোম্পানি": 6558,
      "▁সেনাব": 6559,
      "▁সাম্রাজ্যের": 6560,
      "ాబాద్": 6561,
      "▁অনুসারে": 6562,
      "▁టెక్నాల": 6563,
      "▁উদ্ভিদ": 6564,
      "▁3,287,263": 6565,
      "▁সূত্রটির": 6566,
      "▁బ్రిటిష్": 6567,
      "▁থাইল্যান্ড–": 6568,
      "▁(1,269,219": 6569,
      "▁oldest": 6570,
      "▁<ref": 6571,
      "riving": 6572,
      "quality": 6573,
      "▁Gujarat": 6574,
      ".৬%": 6575,
      "ীড়া": 6576,
      "▁বসবাস": 6577,
      "▁কেরল": 6578,
      "▁এলাকা": 6579,
      "▁প্রত্যক্ষ": 6580,
      "▁సర్వీ": 6581,
      "▁বিধানসভা": 6582,
      "20833": 6583,
      "▁গুরুত্বপূর্ণ": 6584,
      "▁গান্ধী": 6585,
      "▁যথাক্রমে": 6586,
      "াসমূহ": 6587,
      "▁চারটি": 6588,
      "▁চতুর্থ": 6589,
      "▁సంవత్స": 6590,
      "▁স্থানীয়": 6591,
      "▁ক্রয়ক্ষমতা": 6592,
      "▁মুম্বই": 6593,
      "▁সর্বোচ্চ": 6594,
      "▁ইউনিয়ন": 6595,
      "▁মাথাপিছু": 6596,
      "▁ఆఫ్ఘనిస్తాన్": 6597,
      "▁రహదారులు": 6598,
      "▁ইউনিভার্সিটি": 6599,
      "বসতি": 6600,
      "ాస్వామ్య": 6601,
      "▁టిబె": 6602,
      "▁পতাকা": 6603,
      "▁বন্যপ্রাণী": 6604,
      "▁মরুভূমি": 6605,
      "▁মর্যাদা": 6606,
      "▁ভুটান": 6607,
      "▁কয়েকটি": 6608,
      "▁trillion": 6609,
      "▁Taylor": 6610,
      "▁ত্রুটি:": 6611,
      "▁প্রকৃতি": 6612,
      "▁নরেন্দ্র": 6613,
      "▁জম্মু": 6614,
      "▁కన్నడ": 6615,
      "▁కంపెన": 6616,
      "▁మాల్దీవులు": 6617,
      "▁Nobel": 6618,
      "▁ప్రారంభ": 6619,
      "▁Kenneth": 6620,
      "▁జంతువు": 6621,
      "▁ইসলাম": 6622,
      "▁|publisher=": 6623,
      "▁తెలుగు": 6624,
      "▁নিম্নকক্ষ": 6625,
      "▁ఇన్‌ఫ": 6626,
      "▁রক্ষণাবেক্ষণ": 6627,
      "▁77.20833": 6628,
      "▁హిమాలయ": 6629,
      "▁చెందుతున్న": 6630,
      "▁Commonwealth": 6631,
      "▁లోక్‌సభ": 6632,
      "▁28.61389": 6633,
      "▁প্রতিযোগিতা": 6634,
      "▁యుగం": 6635,
      "▁লাক্ষাদ্বীপ": 6636,
      "▁বেঙ্গালুরু": 6637,
      "▁గుజరాత": 6638,
      "▁সার্বভৌম": 6639,
      "▁పార్లమెంట": 6640,
      "▁టెక్నాలజీ": 6641,
      "▁<ref>": 6642,
      "▁রক্ষণাবেক্ষণ:": 6643,
      "cil": 6644,
      "here": 6645,
      "yal": 6646,
      "ancy": 6647,
      "er's": 6648,
      "▁(J": 6649,
      "▁126": 6650,
      "ising": 6651,
      "▁Sin": 6652,
      "▁Pat": 6653,
      "▁ins": 6654,
      "▁initi": 6655,
      "ices": 6656,
      "▁Trits": 6657,
      "▁Department": 6658,
      "lement": 6659,
      "▁);": 6660,
      "ura": 6661,
      "ilar": 6662,
      "▁house": 6663,
      "▁having": 6664,
      "imited": 6665,
      "rief": 6666,
      "▁80": 6667,
      "▁child": 6668,
      "▁partition": 6669,
      "▁expect": 6670,
      "▁Publications": 6671,
      "▁Present": 6672,
      "▁northw": 6673,
      "osition": 6674,
      "▁Ludden,": 6675,
      "▁Exp": 6676,
      "▁members": 6677,
      "▁(c)": 6678,
      "▁American": 6679,
      "▁Publications,": 6680,
      "▁Kumar,": 6681,
      "▁similar": 6682,
      "▁978-0-19-88": 6683,
      "▁Tritsch": 6684,
      "-m": 6685,
      "-in": 6686,
      "-विज्ञान": 6687,
      "2)": 6688,
      "3%": 6689,
      "3).": 6690,
      "SN": 6691,
      "az": 6692,
      "can": 6693,
      "gl": 6694,
      "ually": 6695,
      "νδ": 6696,
      "एन": 6697,
      "क्ट": 6698,
      "गान": 6699,
      "टि": 6700,
      "ठी": 6701,
      "णिप": 6702,
      "तः": 6703,
      "तम": 6704,
      "त्या": 6705,
      "दार": 6706,
      "दारी": 6707,
      "द्वीप": 6708,
      "पि": 6709,
      "पी": 6710,
      "फोर्ड": 6711,
      "रल": 6712,
      "ल्त": 6713,
      "वै": 6714,
      "वेश": 6715,
      "वर्ष": 6716,
      "सित": 6717,
      "ा।": 6718,
      "ीगढ़": 6719,
      "ुग": 6720,
      "ेक": 6721,
      "ोत": 6722,
      "ोन": 6723,
      "ोढ़": 6724,
      "ोटे": 6725,
      "ोसी": 6726,
      "Ἰνδ": 6727,
      "▁ढ": 6728,
      "▁३": 6729,
      "▁७": 6730,
      "▁८": 6731,
      "▁९": 6732,
      "▁00": 6733,
      "▁Ἰνδ": 6734,
      "▁कन्न": 6735,
      "▁कृष": 6736,
      "▁सुर": 6737,
      "▁सल्त": 6738,
      "▁often": 6739,
      "▁मरा": 6740,
      "▁माना": 6741,
      "▁मिला": 6742,
      "▁मशीन": 6743,
      "▁मणिप": 6744,
      "▁पत्र": 6745,
      "ारो": 6746,
      "▁Caste": 6747,
      "▁Craven": 6748,
      "▁Sym": 6749,
      "▁so": 6750,
      "▁stu": 6751,
      "▁soci": 6752,
      "▁Pal": 6753,
      "▁Pur": 6754,
      "▁हिस्": 6755,
      "▁car": 6756,
      "▁countries": 6757,
      "▁अस": 6758,
      "▁अलावा": 6759,
      "▁केवल": 6760,
      "▁bir": 6761,
      "ेंद्र": 6762,
      "्यू": 6763,
      "▁author": 6764,
      "▁Russ": 6765,
      "▁में).": 6766,
      "▁maint": 6767,
      "▁middle": 6768,
      "▁जाना": 6769,
      "▁वीं": 6770,
      "▁नगर": 6771,
      "▁बो": 6772,
      "▁दी": 6773,
      "▁High": 6774,
      "यास": 6775,
      "▁Nep": 6776,
      "▁तुल": 6777,
      "▁lists": 6778,
      "▁Educ": 6779,
      "▁even": 6780,
      "▁here": 6781,
      "▁2002": 6782,
      "▁प्रशास": 6783,
      "▁प्रयास": 6784,
      "ions": 6785,
      "▁domin": 6786,
      "▁Jap": 6787,
      "▁We": 6788,
      "▁Western": 6789,
      "▁Kingdom": 6790,
      "▁Utt": 6791,
      "▁आया": 6792,
      "▁आन्द": 6793,
      "▁गारो": 6794,
      "नाटक": 6795,
      "नाडु": 6796,
      "▁gra": 6797,
      "▁give": 6798,
      "▁Indians": 6799,
      "▁इस्": 6800,
      "▁विज": 6801,
      "▁विज्ञान": 6802,
      "▁विभिन्न": 6803,
      "▁एन": 6804,
      "▁रूस": 6805,
      "2000": 6806,
      "▁rural": 6807,
      "▁range": 6808,
      "ियर": 6809,
      "▁सामा": 6810,
      "▁where": 6811,
      "▁पुर्त": 6812,
      "▁करते": 6813,
      "नेमा": 6814,
      "▁(2016": 6815,
      "▁१०": 6816,
      "▁१३": 6817,
      "▁55": 6818,
      "▁अभियान": 6819,
      "▁हिल्स": 6820,
      "▁within": 6821,
      "ghan": 6822,
      "▁18.": 6823,
      "▁978-0-6": 6824,
      "िलों": 6825,
      "▁इसकी": 6826,
      "त्ति": 6827,
      "▁होते": 6828,
      "16/": 6829,
      "▁समान": 6830,
      "▁समर्थ": 6831,
      "स्ता": 6832,
      "स्त्र": 6833,
      "▁मुंब": 6834,
      "ंडीगढ़": 6835,
      "▁भाषाएँ": 6836,
      "▁क्षेत्रफल": 6837,
      "▁खास": 6838,
      "▁Prosp": 6839,
      "ंधु": 6840,
      "ights": 6841,
      "▁उत्तरी": 6842,
      "resent": 6843,
      "▁१९६": 6844,
      "▁central": 6845,
      "▁leg": 6846,
      "त्म": 6847,
      "▁महासागर": 6848,
      "▁सिंह": 6849,
      "▁सिनेमा": 6850,
      "▁सिंधु": 6851,
      "anuj": 6852,
      "▁ईस": 6853,
      "▁ओड़": 6854,
      "▁Delhi:": 6855,
      "▁Religious": 6856,
      "▁संघर्ष": 6857,
      "ointed": 6858,
      "▁ऑफ": 6859,
      "▁ऑक्स": 6860,
      "▁दिया।": 6861,
      "▁माध्य": 6862,
      "▁ऊर्जा": 6863,
      "▁\"Population": 6864,
      "▁जलोढ़": 6865,
      "▁10.1016/": 6866,
      "▁include": 6867,
      "athematics": 6868,
      "▁Ramanuj": 6869,
      "पूर्व": 6870,
      "▁समाप्त": 6871,
      "▁Afghan": 6872,
      "वादी": 6873,
      "▁देव": 6874,
      "▁देखा": 6875,
      "cription": 6876,
      "▁बनाने": 6877,
      "▁तमिलनाडु": 6878,
      "▁longer": 6879,
      "▁पंजाबी": 6880,
      "ार्क": 6881,
      "▁majority": 6882,
      "▁कर्नाटक": 6883,
      "▁संगीत": 6884,
      "▁(2006),": 6885,
      "arajya": 6886,
      "▁(3rd": 6887,
      "▁transm": 6888,
      "▁विभाग": 6889,
      "▁administered": 6890,
      "▁तेलुग": 6891,
      "▁Andaman": 6892,
      "▁घाटी": 6893,
      "▁स्थापना": 6894,
      "▁served": 6895,
      "▁Africa": 6896,
      "▁Yearbook": 6897,
      "▁सभ्यता": 6898,
      "▁मोदी": 6899,
      "▁Brahm": 6900,
      "▁नदियाँ": 6901,
      "▁आदि": 6902,
      "▁निभाई": 6903,
      "▁parliamentary": 6904,
      "▁थे।": 6905,
      "▁ऋतु": 6906,
      "▁झार": 6907,
      "▁पड़ोसी": 6908,
      "▁caused": 6909,
      "▁नीति": 6910,
      "▁शांति": 6911,
      "▁अमेरिका": 6912,
      "▁Ganarajya": 6913,
      "▁राजधानी": 6914,
      "▁Austral": 6915,
      "▁Madhya": 6916,
      "ultanate": 6917,
      "/business": 6918,
      "▁Barbara": 6919,
      "▁मालदीव": 6920,
      "▁पहुँच": 6921,
      "▁दृष्टि": 6922,
      "▁यूरोपीय": 6923,
      "▁Recogn": 6924,
      "▁सल्तनत": 6925,
      "▁Symbol": 6926,
      "▁Puran": 6927,
      "▁तुलना": 6928,
      "▁Japan": 6929,
      "▁Uttar": 6930,
      "▁इस्ला": 6931,
      "▁सामाजिक": 6932,
      "▁पुर्तग": 6933,
      "▁समर्थन": 6934,
      "▁मुंबई": 6935,
      "▁ऑक्सफोर्ड": 6936,
      "4,": 6937,
      "61)": 6938,
      "_of": 6939,
      "com": 6940,
      "hen": 6941,
      "ner": 6942,
      "nat": 6943,
      "rust": 6944,
      "side": 6945,
      "site": 6946,
      "tra": 6947,
      "–1": 6948,
      "andbook": 6949,
      "▁SI": 6950,
      "▁sett": 6951,
      "▁southern": 6952,
      "itte": 6953,
      "▁called": 6954,
      "▁Member": 6955,
      "▁Medi": 6956,
      "omes": 6957,
      "▁T.": 6958,
      "▁Tra": 6959,
      "▁Temp": 6960,
      "enty-": 6961,
      "▁Bas": 6962,
      "▁Dev": 6963,
      "olence": 6964,
      "▁Handbook": 6965,
      "▁Not": 6966,
      "▁local": 6967,
      "▁Gup": 6968,
      "rative": 6969,
      "▁nat": 6970,
      "▁epic": 6971,
      "▁deb": 6972,
      "▁Ku": 6973,
      "▁Krish": 6974,
      "anged": 6975,
      "ung": 6976,
      "▁global": 6977,
      "▁diversity": 6978,
      "▁vis": 6979,
      "▁vari": 6980,
      "▁978-1-13": 6981,
      "23%": 6982,
      "ultures": 6983,
      "igns": 6984,
      "▁consist": 6985,
      "angetic": 6986,
      "▁also:": 6987,
      "▁website": 6988,
      "▁adopted": 6989,
      "2-5196": 6990,
      "▁BRICS": 6991,
      "▁speakers": 6992,
      "_of_": 6993,
      "-s": 6994,
      "8%": 6995,
      "95": 6996,
      "back": 6997,
      "fer": 6998,
      "uter": 6999,
      "wide": 7000,
      "yam": 7001,
      "ze": 7002,
      "ædia": 7003,
      "–20": 7004,
      "▁“": 7005,
      "▁219": 7006,
      "tian": 7007,
      "ening": 7008,
      "▁Ab": 7009,
      "▁Ahm": 7010,
      "▁Sim": 7011,
      "▁Sons": 7012,
      "▁Power": 7013,
      "▁constitu": 7014,
      "▁Modi": 7015,
      "▁fast": 7016,
      "▁word": 7017,
      "▁De": 7018,
      "olas": 7019,
      "▁Non-": 7020,
      "istan,": 7021,
      "▁Gil": 7022,
      "▁eff": 7023,
      "▁data": 7024,
      "▁Wil": 7025,
      "780": 7026,
      "▁Chris": 7027,
      "ouncil": 7028,
      "▁105": 7029,
      "▁70": 7030,
      "ustom": 7031,
      "app": 7032,
      "162-2": 7033,
      "▁हिन्दु": 7034,
      "atives": 7035,
      "▁\"Indian": 7036,
      "▁978-1-780": 7037,
      "rowth": 7038,
      "05-8": 7039,
      "▁cite": 7040,
      "▁1947,": 7041,
      "2905-8": 7042,
      "▁above": 7043,
      "irect": 7044,
      "11162-2": 7045,
      "▁subcontinent,": 7046,
      "▁Bengali": 7047,
      "▁estimated": 7048,
      "▁Bihar": 7049,
      "▁Fisher,": 7050,
      "▁\"Bi": 7051,
      "▁°C": 7052,
      "▁°F)": 7053,
      "▁Encyclopædia": 7054,
      "▁Programme": 7055,
      "▁Dunleav": 7056,
      "garh": 7057,
      "▁978-1-107-11162-2": 7058,
      "▁Survey": 7059,
      "▁expectancy": 7060,
      "▁978-0-19-882905-8": 7061,
      "▁Christian": 7062,
      "-17": 7063,
      "07": 7064,
      "1st": 7065,
      "147": 7066,
      "700": 7067,
      "Don": 7068,
      "Eur": 7069,
      "IB": 7070,
      "ID": 7071,
      "JP": 7072,
      "NA": 7073,
      "ND": 7074,
      "hin": 7075,
      "nutrition": 7076,
      "well": 7077,
      "y;": 7078,
      "▁ve": 7079,
      "▁eng": 7080,
      "▁times": 7081,
      "ins,": 7082,
      "the": 7083,
      "onial": 7084,
      "▁(18": 7085,
      "alnutrition": 7086,
      "▁three": 7087,
      "ars": 7088,
      "dis": 7089,
      "dies": 7090,
      "▁sm": 7091,
      "▁Princ": 7092,
      "its": 7093,
      "▁Mathematics": 7094,
      "▁tri": 7095,
      "▁Tur": 7096,
      "▁bro": 7097,
      "▁Bomb": 7098,
      "▁Row": 7099,
      "▁met": 7100,
      "▁main": 7101,
      "▁millennium": 7102,
      "▁Nad": 7103,
      "▁low": 7104,
      "▁Gini": 7105,
      "ilm": 7106,
      "▁Lank": 7107,
      "▁Leg": 7108,
      "▁Love": 7109,
      "▁development": 7110,
      "20)": 7111,
      "206": 7112,
      "▁Fin": 7113,
      "▁Fore": 7114,
      "▁Kath": 7115,
      "▁Kerala": 7116,
      "▁reform": 7117,
      "ticles": 7118,
      "imate": 7119,
      "▁42": 7120,
      "onsoon": 7121,
      "ods": 7122,
      "▁Var": 7123,
      "▁103": 7124,
      "▁str": 7125,
      "▁79.": 7126,
      "▁dist": 7127,
      "aper": 7128,
      "ically": 7129,
      "▁vill": 7130,
      "▁2014.": 7131,
      "▁areas": 7132,
      "127": 7133,
      "▁Statistical": 7134,
      "▁These": 7135,
      "ruc": 7136,
      "▁978-1-3": 7137,
      "▁regions": 7138,
      "23)": 7139,
      "ighth": 7140,
      "▁\"Country": 7141,
      "▁Time": 7142,
      "▁river": 7143,
      "▁market": 7144,
      "9-2": 7145,
      "ergy": 7146,
      "view": 7147,
      "▁Harle": 7148,
      "▁\"Human": 7149,
      "▁common": 7150,
      "▁Antholog": 7151,
      "▁appro": 7152,
      "▁appointed": 7153,
      "▁upper": 7154,
      "▁Buddhism": 7155,
      "▁technology": 7156,
      "till": 7157,
      "▁Naray": 7158,
      "▁groups": 7159,
      "▁mathematic": 7160,
      "iii,": 7161,
      "▁Peter": 7162,
      "▁Study": 7163,
      "▁remain": 7164,
      "genous": 7165,
      "▁families": 7166,
      "▁\"Kashmir": 7167,
      "aimed": 7168,
      "▁Chapter": 7169,
      "▁(2016).": 7170,
      "▁Prospects": 7171,
      "▁Afghanistan": 7172,
      "▁Symbols": 7173,
      "Europe": 7174,
      "▁Nadu": 7175,
      ",8": 7176,
      "-b": 7177,
      "55": 7178,
      "85": 7179,
      "?\"": 7180,
      "First": 7181,
      "SE": 7182,
      "bed": 7183,
      "che": 7184,
      "ek": 7185,
      "equality": 7186,
      "ier": 7187,
      "man,": 7188,
      "u,": 7189,
      "ued": 7190,
      "ār": 7191,
      "tiv": 7192,
      "tire": 7193,
      "▁own": 7194,
      "▁Introduction": 7195,
      "▁Countries": 7196,
      "▁Ser": 7197,
      "▁siz": 7198,
      "▁scrip": 7199,
      "▁Trans": 7200,
      "▁ful": 7201,
      "▁fac": 7202,
      "▁achi": 7203,
      "▁mon": 7204,
      "▁men": 7205,
      "verage": 7206,
      "▁less": 7207,
      "▁G.": 7208,
      "▁nation": 7209,
      "▁equ": 7210,
      "cean": 7211,
      "▁4,": 7212,
      "▁foreign": 7213,
      "▁Chhat": 7214,
      "▁being": 7215,
      "▁6.": 7216,
      "17.": 7217,
      "clus": 7218,
      "▁until": 7219,
      "▁(2008": 7220,
      "▁provid": 7221,
      "achal": 7222,
      "ancis": 7223,
      "vention": 7224,
      "▁literacy": 7225,
      "▁entire": 7226,
      "▁Affairs,": 7227,
      "▁Karnat": 7228,
      "s://": 7229,
      "▁Conservation": 7230,
      "▁Sharma,": 7231,
      "▁Francis": 7232,
      "▁Twenty-": 7233,
      "▁(2019).": 7234,
      "▁ritual": 7235,
      "bser": 7236,
      "▁Companion": 7237,
      "▁Springer": 7238,
      "▁Chhattis": 7239,
      "▁Twenty-First": 7240,
      "-पूर्व": 7241,
      ".gov.in": 7242,
      "/I": 7243,
      "30-": 7244,
      "AS": 7245,
      "Al": 7246,
      "CO": 7247,
      "dress": 7248,
      "ho": 7249,
      "rist": 7250,
      "tes": 7251,
      "ting": 7252,
      "uture": 7253,
      "ंच": 7254,
      "ंश": 7255,
      "ंजन": 7256,
      "अंग्रे": 7257,
      "को": 7258,
      "खी": 7259,
      "गल": 7260,
      "चार": 7261,
      "जट": 7262,
      "जित": 7263,
      "टना": 7264,
      "ठा": 7265,
      "त्व": 7266,
      "थी": 7267,
      "दरा": 7268,
      "नव": 7269,
      "नै": 7270,
      "पन": 7271,
      "बू": 7272,
      "बै": 7273,
      "भाष": 7274,
      "मब": 7275,
      "मे": 7276,
      "यक": 7277,
      "यर": 7278,
      "रूप": 7279,
      "लम": 7280,
      "लिस": 7281,
      "शा": 7282,
      "शाली": 7283,
      "सत": 7284,
      "हरा": 7285,
      "हित": 7286,
      "िरा": 7287,
      "ीकरण": 7288,
      "ीक्षण": 7289,
      "ुआ": 7290,
      "ुप": 7291,
      "ृश्य": 7292,
      "ेन्न": 7293,
      "्स": 7294,
      "२.": 7295,
      "५०": 7296,
      "▁%": 7297,
      "▁ट": 7298,
      "▁टी": 7299,
      "▁टा": 7300,
      "ers.": 7301,
      "▁कै": 7302,
      "▁कंप": 7303,
      "▁किये": 7304,
      "▁(n": 7305,
      "▁(p": 7306,
      "orama": 7307,
      "▁सश": 7308,
      "▁सहा": 7309,
      "▁मन्द": 7310,
      "▁मिश": 7311,
      "▁मिज़": 7312,
      "andy": 7313,
      "्रिय": 7314,
      "▁Call": 7315,
      "▁Current": 7316,
      "▁pan": 7317,
      "▁point": 7318,
      "▁Sw": 7319,
      "▁Mach": 7320,
      "▁temp": 7321,
      "▁\"भारत": 7322,
      "▁अरु": 7323,
      "▁अक्ट": 7324,
      "▁केरल": 7325,
      "्याद": 7326,
      "ing.": 7327,
      "▁Bal": 7328,
      "▁Red": 7329,
      "▁Date": 7330,
      "▁makes": 7331,
      "▁जैन": 7332,
      "▁जहाँ": 7333,
      "र्शन": 7334,
      "▁वार": 7335,
      "▁वाली": 7336,
      "▁वास्त": 7337,
      "ley,": 7338,
      "▁हैदरा": 7339,
      "▁नई": 7340,
      "▁ना": 7341,
      "▁नागर": 7342,
      "▁नृत्य": 7343,
      "▁बल": 7344,
      "▁बह": 7345,
      "▁बजट": 7346,
      "▁दमन": 7347,
      "▁दूस": 7348,
      "▁ती": 7349,
      "▁तीन": 7350,
      "▁Gl": 7351,
      "▁Gop": 7352,
      "▁Goa": 7353,
      "▁से,": 7354,
      "▁प्रदान": 7355,
      "▁प्रचल": 7356,
      "▁प्रत्य": 7357,
      "▁Way": 7358,
      ").\"": 7359,
      "▁Fa": 7360,
      "▁आज": 7361,
      "▁आप": 7362,
      "▁आस": 7363,
      "▁आंद": 7364,
      "▁गई": 7365,
      "▁गई।": 7366,
      "ालर": 7367,
      "▁कोई": 7368,
      "▁उभ": 7369,
      "▁लक्ष": 7370,
      "▁लड़ा": 7371,
      "imals": 7372,
      "▁संख्या": 7373,
      "▁इंद": 7374,
      "▁एस": 7375,
      "▁परीक्षण": 7376,
      "्टा": 7377,
      "िसी": 7378,
      "क्षेत्र": 7379,
      "▁राजभाषा": 7380,
      "▁राजनै": 7381,
      "ड़ियाँ": 7382,
      "▁चला": 7383,
      "▁चंडीगढ़": 7384,
      "▁सां": 7385,
      "▁पुलिस": 7386,
      "chive": 7387,
      "abin": 7388,
      "▁(2012": 7389,
      "माचल": 7390,
      "▁हिमाचल": 7391,
      "▁60": 7392,
      "erson": 7393,
      "asses": 7394,
      "▁भील": 7395,
      "▁समझ": 7396,
      "▁kमी": 7397,
      "▁मुस्लिम": 7398,
      "▁फ्रा": 7399,
      "ंत्रिक": 7400,
      "▁राष्ट्रपति": 7401,
      "▁Threat": 7402,
      "▁1967": 7403,
      "▁सरकार.": 7404,
      "▁सरकारें": 7405,
      "▁किया,": 7406,
      "▁विशेष": 7407,
      "age,": 7408,
      "exist": 7409,
      "▁संस्थान": 7410,
      "▁2010).": 7411,
      "▁डालर": 7412,
      "▁जिसका": 7413,
      "▁Ministers": 7414,
      "▁सिख": 7415,
      "▁10.1": 7416,
      "वंश": 7417,
      "▁बाहरी": 7418,
      "▁ईरान": 7419,
      "▁मान्यता": 7420,
      "▁अनुसू": 7421,
      "▁शासित": 7422,
      "▁वर्षा": 7423,
      "▁गुप्त": 7424,
      "▁\"An": 7425,
      "▁छोड़": 7426,
      "▁छोटे": 7427,
      "▁Pakistan,": 7428,
      "ब्ब": 7429,
      "ganisation": 7430,
      "▁मध्यम": 7431,
      "ँचा": 7432,
      "▁विकसित": 7433,
      "▁संघीय": 7434,
      "▁हुई।": 7435,
      "74-10": 7436,
      "▁ऑपर": 7437,
      "▁बढ़कर": 7438,
      "▁सी.": 7439,
      "▁जीत": 7440,
      "▁लोकसभा": 7441,
      "▁सूची": 7442,
      "▁अन्तर": 7443,
      "▁कार्यालय": 7444,
      "▁कार्यपालिका": 7445,
      "▁Columb": 7446,
      "▁College": 7447,
      "▁रही": 7448,
      "▁भूमि": 7449,
      "ause": 7450,
      "तिहासिक": 7451,
      "▁Address": 7452,
      "▁death": 7453,
      "▁शुरुआ": 7454,
      "▁बांग्लादेश": 7455,
      "▁report:": 7456,
      "▁राजनीति": 7457,
      "▁गुजराती": 7458,
      "▁बिहार": 7459,
      "▁लोगों": 7460,
      "▁विस्तार": 7461,
      "▁२०१४": 7462,
      "▁मिलियन": 7463,
      "▁Books": 7464,
      "▁वेबै": 7465,
      "▁आकर्ष": 7466,
      "▁घाट": 7467,
      "▁marriages": 7468,
      "▁मलया": 7469,
      "▁हरिया": 7470,
      "8-6": 7471,
      "▁जिनमें": 7472,
      "▁तीसरी": 7473,
      "▁आगमन": 7474,
      "▁गोआ": 7475,
      "▁(2013),": 7476,
      "▁मंत्रिम": 7477,
      "▁मील)": 7478,
      "▁Telug": 7479,
      "▁nearly": 7480,
      "▁घोषणा": 7481,
      "▁version": 7482,
      "▁pollution": 7483,
      "-पश्चिम": 7484,
      "कृतिक": 7485,
      "▁कहते": 7486,
      "▁उसके": 7487,
      "▁छत्तीसगढ़": 7488,
      "▁अमरीकी": 7489,
      "▁कृषि": 7490,
      "▁मराठी": 7491,
      "▁आन्दोलन": 7492,
      "▁माध्यम": 7493,
      "▁Ahmed": 7494,
      "▁words": 7495,
      "▁978-1-78074-10": 7496,
      "▁सहायक": 7497,
      "▁मन्दिर": 7498,
      "▁अरुणा": 7499,
      "▁अक्टूबर": 7500,
      "्यादा": 7501,
      "▁वास्तव": 7502,
      "▁हैदराबाद": 7503,
      "▁आंदोलन": 7504,
      "▁राजनैतिक": 7505,
      "▁ऑपरेशन": 7506,
      "▁Columbia": 7507,
      "▁वेबैक": 7508,
      "▁978-1-78074-108-6": 7509,
      ",৮": 7510,
      ",500": 7511,
      "-আ": 7512,
      "-ক": 7513,
      "-স": 7514,
      "-০": 7515,
      "-৭": 7516,
      "-বি": 7517,
      "-প্র": 7518,
      ".৪": 7519,
      ".imf.org": 7520,
      "1).": 7521,
      "250": 7522,
      "254": 7523,
      "67": 7524,
      "79)": 7525,
      "ax": 7526,
      "adi": 7527,
      "eenth": 7528,
      "first": 7529,
      "hild": 7530,
      "ied": 7531,
      "last": 7532,
      "xim": 7533,
      "yl": 7534,
      "ঁড়": 7535,
      "ঁদের": 7536,
      "উট": 7537,
      "উথ": 7538,
      "কশাল": 7539,
      "খর": 7540,
      "গি": 7541,
      "গৎ": 7542,
      "গরি": 7543,
      "ঘর্ষ": 7544,
      "চর": 7545,
      "চি": 7546,
      "চীন": 7547,
      "ছি": 7548,
      "জার": 7549,
      "ট্": 7550,
      "টিকে": 7551,
      "টেক": 7552,
      "টওয়": 7553,
      "ডা": 7554,
      "ণ্য": 7555,
      "ণীর": 7556,
      "তিত": 7557,
      "ত্ম": 7558,
      "তাবাদ": 7559,
      "তত্ত্ব": 7560,
      "দে": 7561,
      "ধি": 7562,
      "ধর্ম": 7563,
      "নাম": 7564,
      "নাগ": 7565,
      "নীতি": 7566,
      "নেস": 7567,
      "পদ": 7568,
      "পায়ী": 7569,
      "পমেন্ট": 7570,
      "পাহি": 7571,
      "পঞ্জি": 7572,
      "ফ্র": 7573,
      "ফসি": 7574,
      "বী": 7575,
      "বিত্র": 7576,
      "বর্ণ": 7577,
      "ভব": 7578,
      "ভুক্ত": 7579,
      "ভেল": 7580,
      "মণ": 7581,
      "মী": 7582,
      "মু": 7583,
      "ম্বে": 7584,
      "মিয়ানমার": 7585,
      "রেশ": 7586,
      "ল্প": 7587,
      "ল্যান্ড": 7588,
      "শৈ": 7589,
      "শীয়": 7590,
      "শিল্প": 7591,
      "শক্তি": 7592,
      "শিক্ষ": 7593,
      "স,": 7594,
      "সভ": 7595,
      "সা": 7596,
      "সরা": 7597,
      "সায়": 7598,
      "সার্চ": 7599,
      "সাইক্": 7600,
      "হু": 7601,
      "হার": 7602,
      "া-": 7603,
      "াখ": 7604,
      "াভ": 7605,
      "িলি": 7606,
      "িমে": 7607,
      "ীষ্": 7608,
      "ুড়ে": 7609,
      "ূর": 7610,
      "ৃহ": 7611,
      "ৃদ্ধি": 7612,
      "ৃষ্টি": 7613,
      "েজ": 7614,
      "েদের": 7615,
      "োষ": 7616,
      "োয়ে": 7617,
      "োলি": 7618,
      "োত্র": 7619,
      "োয়া": 7620,
      "্নে": 7621,
      "্ছি": 7622,
      "০৬": 7623,
      "০)।": 7624,
      "০৫১": 7625,
      "০২১": 7626,
      "১১-৪": 7627,
      "২,": 7628,
      "২৯": 7629,
      "২)।": 7630,
      "৩।": 7631,
      "৩০": 7632,
      "৪৬-": 7633,
      "৫৮": 7634,
      "৬।": 7635,
      "৬–": 7636,
      "৬৪)।": 7637,
      "৭)।": 7638,
      "৮,": 7639,
      "৯),": 7640,
      "ంకా": 7641,
      "కూ": 7642,
      "ఖ్": 7643,
      "గతి": 7644,
      "చుగ": 7645,
      "జన": 7646,
      "జు": 7647,
      "జ్": 7648,
      "జాలు": 7649,
      "టా": 7650,
      "ట్ర": 7651,
      "టన్": 7652,
      "టర్": 7653,
      "టంలో": 7654,
      "టెడ్": 7655,
      "డమ": 7656,
      "డిన": 7657,
      "ఢ్": 7658,
      "తూ": 7659,
      "తాన": 7660,
      "తులు": 7661,
      "దటి": 7662,
      "ద్రం": 7663,
      "నలో": 7664,
      "నది": 7665,
      "పద": 7666,
      "పెద్ద": 7667,
      "పిక్": 7668,
      "మన": 7669,
      "మొ": 7670,
      "మో": 7671,
      "మతి": 7672,
      "మించ": 7673,
      "మాబాద్": 7674,
      "యాలు": 7675,
      "రత": 7676,
      "రాల": 7677,
      "రాన్": 7678,
      "లిం": 7679,
      "లయా": 7680,
      "లాలు,": 7681,
      "ళం": 7682,
      "ళి": 7683,
      "ళ్": 7684,
      "శ్ర": 7685,
      "సీ": 7686,
      "స్ర": 7687,
      "సిం": 7688,
      "సులు": 7689,
      "హన": 7690,
      "హార్": 7691,
      "ాంగ": 7692,
      "ి.": 7693,
      "ిమా": 7694,
      "ీ;": 7695,
      "ీఠ": 7696,
      "ీర": 7697,
      "ీటిలో": 7698,
      "ీహార్": 7699,
      "ున్న": 7700,
      "ెట్ట": 7701,
      "ేయ": 7702,
      "ైవ": 7703,
      "ొయ": 7704,
      "ోత్స": 7705,
      "‌ల": 7706,
      "▁ঝ": 7707,
      "▁ఓ": 7708,
      "▁థ": 7709,
      "▁ధ": 7710,
      "▁er": 7711,
      "▁ది": 7712,
      "▁লে": 7713,
      "▁yy": 7714,
      "▁রেখ": 7715,
      "্রাট": 7716,
      "্রপ্রদেশ": 7717,
      "▁(জ": 7718,
      "▁(%)": 7719,
      "▁(পূর্ব": 7720,
      "▁(Hindi": 7721,
      "▁(వె": 7722,
      "▁সব": 7723,
      "▁সাব": 7724,
      "▁সার্": 7725,
      "▁সারা": 7726,
      "▁সাগর": 7727,
      "▁সৃষ্টি": 7728,
      "enins": 7729,
      "▁পৌর": 7730,
      "▁পতিত": 7731,
      "▁পবিত্র": 7732,
      "▁ব্র": 7733,
      "▁বাল": 7734,
      "▁বাহ": 7735,
      "▁বন্দ": 7736,
      "▁বাস": 7737,
      "▁বস্ত্র": 7738,
      "▁বম্বে": 7739,
      "edule": 7740,
      "▁[...]": 7741,
      "▁মৈ": 7742,
      "▁মন্ত্রী": 7743,
      "▁মাত্র": 7744,
      "▁মৌর": 7745,
      "▁মিয়ানমার": 7746,
      "▁ভবন": 7747,
      "▁ভিত্ত": 7748,
      "র্ঘ": 7749,
      "র্মা": 7750,
      "▁Cap": 7751,
      "▁CIA": 7752,
      "్రూ": 7753,
      "్రీయ": 7754,
      "్రప్రదేశ్": 7755,
      "atch": 7756,
      "▁paint": 7757,
      "ানির": 7758,
      "▁Sag": 7759,
      "▁কমি": 7760,
      "▁কর্ণ": 7761,
      "▁কখন": 7762,
      "▁কাবা": 7763,
      "▁set": 7764,
      "▁shar": 7765,
      "▁signific": 7766,
      "▁Pe": 7767,
      "▁অপ": 7768,
      "▁অঙ্গ": 7769,
      "▁অন্ধ": 7770,
      "▁অসম": 7771,
      "▁অবস্থা": 7772,
      "▁অত্য": 7773,
      "▁অস্ত্র": 7774,
      "▁অস্ট্র": 7775,
      "্ত)": 7776,
      "▁আগ্র": 7777,
      "▁আসে": 7778,
      "▁আবাস": 7779,
      "▁আসাম": 7780,
      "▁আত্ম": 7781,
      "▁పంచ": 7782,
      "▁పల్ల": 7783,
      "▁పర్వ": 7784,
      "▁పూర్": 7785,
      "▁పోర్": 7786,
      "▁పీఠ": 7787,
      "▁char": 7788,
      "▁constitution": 7789,
      "▁india": 7790,
      "▁institu": 7791,
      "▁Myan": 7792,
      "▁Ten": 7793,
      "▁Tot": 7794,
      "ారా": 7795,
      "ారాష్ట్ర": 7796,
      "ారిత్రక": 7797,
      "▁তু": 7798,
      "▁তাল": 7799,
      "▁তাই": 7800,
      "▁তবে": 7801,
      "▁তফসি": 7802,
      "▁fund": 7803,
      "▁feat": 7804,
      "▁won": 7805,
      "▁এল": 7806,
      "▁এগুলি": 7807,
      "▁এক্স": 7808,
      "▁এখানে": 7809,
      "▁১,": 7810,
      "▁হে": 7811,
      "্বয়ে": 7812,
      "▁নদ": 7813,
      "▁নাগ": 7814,
      "▁নানা": 7815,
      "▁নাটক": 7816,
      "▁জল": 7817,
      "▁জেলা": 7818,
      "ৃত্ব": 7819,
      "▁mm": 7820,
      "▁mig": 7821,
      "▁mid": 7822,
      "▁minor": 7823,
      "▁కథ": 7824,
      "▁కల": 7825,
      "▁కి": 7826,
      "▁కర్": 7827,
      "▁క్యాల": 7828,
      "▁দিন": 7829,
      "িতি": 7830,
      "রাজ": 7831,
      "রাণ": 7832,
      "রাঞ্চল": 7833,
      "রাজ্য": 7834,
      "ন্ম": 7835,
      "▁సహ": 7836,
      "▁స్ట": 7837,
      "▁সংখ্য": 7838,
      "▁সংঘর্ষ": 7839,
      "▁বিংশ": 7840,
      "▁বিমান": 7841,
      "▁বিদ্র": 7842,
      "▁రే": 7843,
      "▁రూప": 7844,
      "▁మె": 7845,
      "▁మార": 7846,
      "▁మంత్ర": 7847,
      "▁మరా": 7848,
      "▁మయన్": 7849,
      "▁మంది": 7850,
      "▁మిజ": 7851,
      "▁మలయా": 7852,
      "▁192,": 7853,
      "▁వల": 7854,
      "▁వలస": 7855,
      "▁వీటిలో": 7856,
      "▁HD": 7857,
      "urther": 7858,
      "▁Nic": 7859,
      "chin": 7860,
      "▁భిన్న": 7861,
      "ush": 7862,
      "াইড": 7863,
      "াইমস": 7864,
      "াইলিং": 7865,
      "ర్,": 7866,
      "ర్మే": 7867,
      "లోన్": 7868,
      "▁larg": 7869,
      "▁Gree": 7870,
      "াতার": 7871,
      "াত্ত": 7872,
      "ulti": 7873,
      "ragl": 7874,
      "▁E.": 7875,
      "য়েল": 7876,
      "স্টি": 7877,
      "దేశీ": 7878,
      "▁থর": 7879,
      "elf": 7880,
      "▁named": 7881,
      "లు,": 7882,
      "▁earliest": 7883,
      "నియా": 7884,
      "গ্রাম": 7885,
      "▁শান্ত": 7886,
      "▁শ্বে": 7887,
      "▁শেষ": 7888,
      "▁শিশ": 7889,
      "▁ప్రత్య": 7890,
      "▁dd": 7891,
      "বি)": 7892,
      "বিটি": 7893,
      "বিশিষ্ট": 7894,
      "বিশ্ব": 7895,
      "▁Wik": 7896,
      "▁Wile": 7897,
      "▁Women": 7898,
      "▁అమె": 7899,
      "▁చూడ": 7900,
      "▁చాలా": 7901,
      "▁చారిత్రక": 7902,
      "▁মূল্য": 7903,
      "▁রাসায়": 7904,
      "angered": 7905,
      "▁జల": 7906,
      "▁జార్": 7907,
      "▁జంబ": 7908,
      "▁జరుపు": 7909,
      "ায়ক": 7910,
      "tices": 7911,
      "▁তারিখে.": 7912,
      "ডি)": 7913,
      "ডিয়া": 7914,
      "adal": 7915,
      "▁যন্ত্র": 7916,
      "▁যোগ": 7917,
      "stan": 7918,
      "▁నా": 7919,
      "▁నృ": 7920,
      "▁నలుపు": 7921,
      "▁ইত্যা": 7922,
      "▁ইসরা": 7923,
      "ays": 7924,
      "క్తి": 7925,
      "క్టో": 7926,
      "▁২০১০": 7927,
      "ాతం": 7928,
      "ాతి": 7929,
      "ాతో": 7930,
      "ినీ": 7931,
      "ন্তু": 7932,
      "ల్తాన": 7933,
      "umeration": 7934,
      "রিয়া": 7935,
      "▁|পাত": 7936,
      "▁|first": 7937,
      "▁|last": 7938,
      "▁తి": 7939,
      "▁త్రి": 7940,
      "▁తలస": 7941,
      "acter": 7942,
      "▁రాజు": 7943,
      "▁రాజస్థాన్": 7944,
      "এসএন": 7945,
      "এসএল": 7946,
      "▁নিযুক্ত": 7947,
      "াদশ": 7948,
      "াদে": 7949,
      "াদিল্লি": 7950,
      "াদকগণ": 7951,
      "ాయు": 7952,
      "▁ఇవి": 7953,
      "▁ఇక్క": 7954,
      "▁ఇరాన్": 7955,
      "▁সমর্থ": 7956,
      "▁উপরাষ্ট্র": 7957,
      "▁উপনিবেশ": 7958,
      "పూర్": 7959,
      "▁একই": 7960,
      "▁একত্র": 7961,
      "▁సార": 7962,
      "িনী": 7963,
      "িনায়ক": 7964,
      "కుడు": 7965,
      "త్తా": 7966,
      "ానీ": 7967,
      "ধান্য": 7968,
      "▁Arm": 7969,
      "▁ফল": 7970,
      "▁ফোর্": 7971,
      "▁জনতা": 7972,
      "▁জনপরি": 7973,
      "▁রবী": 7974,
      "▁Vari": 7975,
      "▁rise": 7976,
      "10).": 7977,
      "ত্তি": 7978,
      "▁চা": 7979,
      "▁চুক্ত": 7980,
      "▁బీహార్": 7981,
      "▁whose": 7982,
      "▁৩৫": 7983,
      "▁৩৮": 7984,
      "overeign": 7985,
      "পি)": 7986,
      "▁గంగా": 7987,
      "▁হয়;": 7988,
      "লাভ": 7989,
      "▁77": 7990,
      "প্রবাহ": 7991,
      "প্রকাশ": 7992,
      "▁(2010).": 7993,
      "sha": 7994,
      "రుష": 7995,
      "రుగు": 7996,
      "▁মধ্যস্থ": 7997,
      "▁মধ্যবর্তী": 7998,
      "▁86": 7999,
      "▁৫০": 8000,
      "▁৫২": 8001,
      "▁৫৫": 8002,
      "▁৫৬": 8003,
      "▁৫৯": 8004,
      "▁విద్య": 8005,
      "▁విదేశీ": 8006,
      "▁দেশ।": 8007,
      "▁বিশ্ববিদ্যালয়": 8008,
      "ము.": 8009,
      "▁దా": 8010,
      "▁ద్ర": 8011,
      "▁సంస్థ": 8012,
      "▁సంబంధ": 8013,
      "▁Enumeration": 8014,
      "▁৪০": 8015,
      "▁৪১": 8016,
      "▁৪৬": 8017,
      "▁৪৭": 8018,
      "▁exch": 8019,
      "▁హై": 8020,
      "▁హిమా": 8021,
      "▁পরিমাণ": 8022,
      "সংযোগ": 8023,
      "সিসি": 8024,
      "▁శాస": 8025,
      "াগোষ্ঠী": 8026,
      "▁ভাষাগোষ্ঠী": 8027,
      "▁ধার": 8028,
      "ార్థ": 8029,
      "▁(సా.శ.పూ.4": 8030,
      "▁(సా.శ.పూ.33": 8031,
      "▁পাক": 8032,
      "▁পাঠ": 8033,
      "▁রাষ্ট্রে": 8034,
      "▁রাষ্ট্রের": 8035,
      "▁রাষ্ট্রসংঘ": 8036,
      "▁India\".": 8037,
      "▁টেলি": 8038,
      "▁টাইমস": 8039,
      "▁ఎన్ని": 8040,
      "▁జాతి": 8041,
      "▁పేర్కొ": 8042,
      "000)": 8043,
      "▁kingdom": 8044,
      "▁৭২": 8045,
      "▁৭৫": 8046,
      "▁রাজ্যসভা": 8047,
      "▁125": 8048,
      "▁దేశము": 8049,
      "▁অঞ্চলটি": 8050,
      "lood": 8051,
      "জাতি": 8052,
      "▁৮৩": 8053,
      "▁৮১-": 8054,
      "▁সেই": 8055,
      "▁মহাম": 8056,
      "▁মহারা": 8057,
      "▁মহানগর": 8058,
      "আইএ": 8059,
      "াজন": 8060,
      "▁(২০০৪),": 8061,
      "▁(২০০৭)।": 8062,
      "తరాలు": 8063,
      "▁(2003).": 8064,
      "সেনা": 8065,
      "▁৬০": 8066,
      "নাড়": 8067,
      "▁లా": 8068,
      "▁లె": 8069,
      "▁Provisions": 8070,
      "▁ক্রীড়া": 8071,
      "ected": 8072,
      "▁prot": 8073,
      "బడ్": 8074,
      "▁వ్యాప": 8075,
      "▁যুব": 8076,
      "▁০-০০": 8077,
      "▁০-৭৬": 8078,
      "▁বর্ধনশীল": 8079,
      "▁নেই": 8080,
      "ভূটান": 8081,
      "ట్టమొ": 8082,
      "▁నుంచి": 8083,
      "▁language,": 8084,
      "▁కూడుకు": 8085,
      "ীত।": 8086,
      "▁সিংহ": 8087,
      "▁সিপাহি": 8088,
      "ద్ధం": 8089,
      "▁Population)\"": 8090,
      "▁దేశం.": 8091,
      "▁దేశంగా": 8092,
      "▁(১৯৬৪)।": 8093,
      "▁মুসলমান": 8094,
      "▁ভূমি": 8095,
      "▁বিজনেস": 8096,
      "▁మొట్టమొ": 8097,
      "▁స్థాయి": 8098,
      "াপান": 8099,
      "াপেক্ষা": 8100,
      "త్రిక": 8101,
      "▁অবদান": 8102,
      "▁বৃহৎ": 8103,
      "▁plates": 8104,
      "▁\"Census": 8105,
      "▁\"Constitutional": 8106,
      "▁সাথে": 8107,
      "▁সাউথ": 8108,
      "▁সর্বাপেক্ষা": 8109,
      "▁শিল্পকলা": 8110,
      "▁ইউরেশ": 8111,
      "▁ప్రాంతం": 8112,
      "▁ప్రాంతీయ": 8113,
      "▁2012.": 8114,
      "▁relations": 8115,
      "▁partic": 8116,
      "শিয়া": 8117,
      "▁সংস্কৃতির": 8118,
      "▁সংস্কৃতিতে": 8119,
      "▁Although": 8120,
      "▁Decadal": 8121,
      "పాదన": 8122,
      "ప్పా": 8123,
      "▁মাঝ": 8124,
      "▁১৯৯৭": 8125,
      "▁১৯৯৮": 8126,
      "▁১৯৯০-এর": 8127,
      "స్కృతిక": 8128,
      "▁পূর্বে": 8129,
      "▁অধিকার": 8130,
      "▁হয়েছিল।": 8131,
      "▁প্রজাতি": 8132,
      "ভাগে": 8133,
      "డ్డ": 8134,
      "▁বিচ্ছি": 8135,
      "దినాలు": 8136,
      "5.0": 8137,
      "-dram": 8138,
      "নেট": 8139,
      "▁সুপার": 8140,
      "▁নয়াদিল্লি": 8141,
      "▁క్రీ.పూ.": 8142,
      "▁ఒకే": 8143,
      "▁স্বাধীনতার": 8144,
      "তিহাসিক": 8145,
      "▁পশ্চিমে": 8146,
      "পাত্ত)": 8147,
      "ణాచల్": 8148,
      "ణాటక": 8149,
      "తుంది.": 8150,
      "రాం": 8151,
      "▁গ্রিক": 8152,
      "▁গ্রন্": 8153,
      "▁গ্রাম": 8154,
      "▁গ্রীষ্": 8155,
      "▁সহায়": 8156,
      "▁భాషా": 8157,
      "▁(১৯৯৯),": 8158,
      "29,": 8159,
      "প্তর": 8160,
      "শনাল": 8161,
      "ెండర్": 8162,
      "▁সংসদের": 8163,
      "▁বিচারপতি": 8164,
      "▁বিচারব্যবস্থা": 8165,
      "▁ఉత్తరా": 8166,
      "▁ఉత్తరాన": 8167,
      "▁Emerg": 8168,
      "48)": 8169,
      "বাদী": 8170,
      "ుకొ": 8171,
      "▁পর্বত": 8172,
      "▁প্রাকৃতিক": 8173,
      "▁প্রাধান্য": 8174,
      "ন্ট্র": 8175,
      "▁হিন্দুস্তান": 8176,
      "▁చెయ్యబడింది.": 8177,
      "▁ঐতিহাসিক": 8178,
      "▁ব্রিটান": 8179,
      "▁సిలోన్": 8180,
      "▁మహాత్మ": 8181,
      "▁మహారాష్ట్ర": 8182,
      "స్తున్న": 8183,
      "▁সঙ্গীতের": 8184,
      "▁স্থাপন": 8185,
      "▁স্থাপিত": 8186,
      "▁వ్యవస్థలో": 8187,
      "96)": 8188,
      "46)": 8189,
      "▁traditional": 8190,
      "ম্পিউ": 8191,
      "রোধী": 8192,
      "োরমা": 8193,
      "৫১৭": 8194,
      "ంధ్రప్రదేశ్": 8195,
      "మేన": 8196,
      "▁టై": 8197,
      "▁লাখ": 8198,
      "▁పురుష": 8199,
      "▁দশকে": 8200,
      "▁ప్రజల": 8201,
      "▁ప్రజలు": 8202,
      "▁ప్రజాద": 8203,
      "▁ప్రజాస్వామ్య": 8204,
      "క్కన": 8205,
      "క్కను": 8206,
      "▁নির্বাচনে": 8207,
      "▁বছরের": 8208,
      "৩-৬": 8209,
      "▁বেড়ে": 8210,
      "▁উদ্ভব": 8211,
      "▁বিস্তৃত।": 8212,
      "▁వందే": 8213,
      "▁వేల": 8214,
      "▁రాజ్యాంగ": 8215,
      "গুলোর": 8216,
      "▁পরীক্ষণ": 8217,
      "▁శాఖ": 8218,
      "▁Centre।": 8219,
      "▁যুগের": 8220,
      "▁స్థానం": 8221,
      "▁హిందూదేశం": 8222,
      "▁সাহিত্যিক": 8223,
      "কল্প": 8224,
      "২১৬": 8225,
      "ీనంలో": 8226,
      "ుకుంట": 8227,
      "▁লিখিত": 8228,
      "–సా.శ.1858)": 8229,
      "▁সময়কালের": 8230,
      "▁হিমবাহ": 8231,
      "emocratic": 8232,
      "ত্ন": 8233,
      "ন্যপায়ী": 8234,
      "రోపా": 8235,
      "▁রিসার্চ": 8236,
      "ারী।": 8237,
      "▁২৮টি": 8238,
      "▁জয়লাভ": 8239,
      "▁అతిపెద్ద": 8240,
      "▁ইন্দি": 8241,
      "▁নির্ধ": 8242,
      "▁নির্ভর": 8243,
      "▁సాంస్కృతిక": 8244,
      "▁সংস্করণ),": 8245,
      "▁শাসনাধীন": 8246,
      "▁যুক্তরাষ্ট্রের": 8247,
      "▁Society।": 8248,
      "▁ইন্ডিয়ান": 8249,
      "▁recogn": 8250,
      "-অধ": 8251,
      ".৭%": 8252,
      "জ্ঞানিক": 8253,
      "ఖండ్": 8254,
      "్‌సై": 8255,
      "▁ছোট": 8256,
      "▁স্তরে": 8257,
      "▁স্তন্যপায়ী": 8258,
      "▁অভিধান": 8259,
      "▁ఉంటుంది.": 8260,
      "▁নিজেদের": 8261,
      "▁బ్రిటీ": 8262,
      "▁బెంగాల్": 8263,
      "▁విస్తర": 8264,
      "▁విస్తీర్ణ": 8265,
      "▁বর্তমান": 8266,
      "▁ডলারের": 8267,
      "▁ক্ষমতা": 8268,
      "▁দশকের": 8269,
      "▁দশকগুলিতে": 8270,
      "▁తరువాతి": 8271,
      "▁surface": 8272,
      "▁colour": 8273,
      "▁republic": 8274,
      "চেঞ্জ": 8275,
      "বাং": 8276,
      "েলিয়া": 8277,
      "ష్టు": 8278,
      "▁ద్వారా": 8279,
      "▁বায়ুপ্রবাহ": 8280,
      "▁প্রশাসন": 8281,
      "▁প্রশাসনিক": 8282,
      "▁উদ্যান": 8283,
      "▁দাঁড়": 8284,
      "▁సంగీత": 8285,
      "▁সংখ্যাগরি": 8286,
      "▁শহর": 8287,
      "▁শহরে": 8288,
      "▁(సా.శ.1206": 8289,
      "▁ইনফ": 8290,
      "▁సాధించ": 8291,
      "▁ধ্রুপদী": 8292,
      "▁পাঁচটি": 8293,
      "▁లేని": 8294,
      "▁లేదా": 8295,
      "▁కాశ్మీర్": 8296,
      "▁స్వాతంత్ర్యం": 8297,
      "▁আদালতের": 8298,
      "▁ঐতিহ্যবাহী": 8299,
      "▁তামিলনাড়": 8300,
      "▁2000,": 8301,
      "▁MacDon": 8302,
      "▁left-": 8303,
      "▁Court\"": 8304,
      "৩২৯": 8305,
      "లతో,": 8306,
      "ిల్లు": 8307,
      "▁ఐరోపా": 8308,
      "▁পালিত": 8309,
      "▁পরেই": 8310,
      "▁ভিন্ন": 8311,
      "▁কারণে": 8312,
      "▁আয়ত": 8313,
      "▁పండు": 8314,
      "▁పండుగ": 8315,
      "▁নিকোবর": 8316,
      "▁సుల్తాన": 8317,
      "▁మనదేశం": 8318,
      "স্থানীয়": 8319,
      "▁ప్రతిపాదన": 8320,
      "ించి,": 8321,
      "▁(సా.శ.పూ.300": 8322,
      "▁প্রতিষ্ঠিত": 8323,
      "▁ముఖ్యమైన": 8324,
      "▁చేసింది.": 8325,
      "▁సినిమాలు": 8326,
      "▁శాస్త్రీయ": 8327,
      "▁ఏర్పడ్డ": 8328,
      "▁సరిహద్దుగా": 8329,
      "▁(editor)": 8330,
      "▁(editors": 8331,
      "▁series": 8332,
      ".com।": 8333,
      "▁Encyclopae": 8334,
      "▁INR": 8335,
      "▁texts": 8336,
      "▁Part-17": 8337,
      "চ্ছে": 8338,
      "শ্রে": 8339,
      "▁০১৯": 8340,
      "▁মৌলিক": 8341,
      "▁কিন্তু": 8342,
      "▁এনসাইক্": 8343,
      "▁দৈনিক": 8344,
      "urned": 8345,
      "▁చైనా": 8346,
      "▁উপমহাদেশের": 8347,
      "▁রূপ": 8348,
      "▁রূপে": 8349,
      "▁విభిన్న": 8350,
      "▁సామ్రాజ్యము": 8351,
      "▁ডেভেল": 8352,
      "▁ঘোষিত": 8353,
      "▁యునై": 8354,
      "▁উৎপাদ": 8355,
      "▁మొదలైన": 8356,
      "▁బహుళ": 8357,
      "▁বিভক্ত।": 8358,
      "culp": 8359,
      "▁Jainism": 8360,
      "▁Mumbai:": 8361,
      "▁Organization": 8362,
      "▁purp": 8363,
      "গঠন": 8364,
      "వచ్చు.": 8365,
      "▁(Final": 8366,
      "▁সভ্যতার": 8367,
      "▁পেয়ে": 8368,
      "▁বন্যা": 8369,
      "▁বঙ্গোপ": 8370,
      "▁বার্ষিক": 8371,
      "▁মালয়ালম": 8372,
      "▁কার্যালয়": 8373,
      "▁কলকাতা": 8374,
      "▁অগ্রণী": 8375,
      "▁আর্ট": 8376,
      "▁আর্থিক": 8377,
      "▁పొందిన": 8378,
      "▁పద్ధతి": 8379,
      "▁పంజాబ్": 8380,
      "▁এদেশের": 8381,
      "▁కింద": 8382,
      "▁సముద్ర": 8383,
      "▁మౌర్య": 8384,
      "▁భావి": 8385,
      "▁আইএসএসএন": 8386,
      "▁ফ্রান্স": 8387,
      "నుకటి": 8388,
      "▁దాదాపు": 8389,
      "▁পাঞ্জাব": 8390,
      "▁বৈচিত্র্যময়": 8391,
      "▁স্মাইলিং": 8392,
      "▁ভূমিকা": 8393,
      "▁కోర్టు": 8394,
      "▁(১৯৯৮),": 8395,
      "▁খ্রিস্টান": 8396,
      "▁দেখুন:": 8397,
      "▁కార్యక్రమ": 8398,
      "▁వెబ్‌సై": 8399,
      "▁కాశ్మీరు": 8400,
      "▁মন্ত্রকের": 8401,
      "▁মণিপুরী": 8402,
      "▁ఇంగ్లీషు": 8403,
      "▁పరిశ్రమలు": 8404,
      "▁నిర్వహణ": 8405,
      "▁agriculture": 8406,
      "▁emerged": 8407,
      "erlag": 8408,
      "▁following": 8409,
      "▁developed": 8410,
      "▁directly": 8411,
      "ধাঁচ": 8412,
      "বরাহ": 8413,
      "লুপ্ত": 8414,
      "লোপিডিয়া": 8415,
      "০৭-৭": 8416,
      "గోళిక": 8417,
      "భాగం": 8418,
      "వ్యవస్థ": 8419,
      "▁ষষ্ঠ": 8420,
      "▁దినోత్స": 8421,
      "▁(উপাত্ত)": 8422,
      "▁বেসর": 8423,
      "▁মারাঠি": 8424,
      "▁কয়লা": 8425,
      "▁অ্যাড": 8426,
      "▁আদিবাসী": 8427,
      "▁আয়োজিত": 8428,
      "▁పతకాలు": 8429,
      "▁প্রবর্তিত": 8430,
      "▁ন্যাশনাল": 8431,
      "▁জীববৈ": 8432,
      "▁জ্যোতির্": 8433,
      "▁দারিদ্র্য": 8434,
      "কেন্দ্রিক": 8435,
      "▁1901\"": 8436,
      "▁భౌగోళిక": 8437,
      "▁అరుణాచల్": 8438,
      "▁చాళుక్య": 8439,
      "▁গঙ্গা": 8440,
      "▁গবেষণা": 8441,
      "▁నాలుగు": 8442,
      "▁ఆగష్టు": 8443,
      "▁ఇస్లామాబాద్": 8444,
      "▁সম্মিল": 8445,
      "▁ফেডারেশন": 8446,
      "▁సంకీర్ణ": 8447,
      "▁సంప్రదాయాలు": 8448,
      "▁హరప్పా": 8449,
      "▁মহাসাগর": 8450,
      "▁বৈদিক": 8451,
      "▁(২০০১),": 8452,
      "▁ব্যবস্থার": 8453,
      "▁ব্যবহৃত": 8454,
      "▁ఆర్థిక": 8455,
      "చ్చేరి": 8456,
      "▁రైళ్లను": 8457,
      "▁অধিষ্ঠিত": 8458,
      "▁డాలర్లు": 8459,
      "▁పరిపాలన": 8460,
      "▁గుర్త": 8461,
      "▁খেলাধুলা": 8462,
      "▁సాంప్రదాయిక": 8463,
      "▁খ্রিষ্টপূর্বাব্দ": 8464,
      "▁পিএমআইডি": 8465,
      "▁সেনাবাহিনী": 8466,
      "▁సర్వీసులు": 8467,
      "াসমূহ=": 8468,
      "▁కంపెనీ": 8469,
      "▁ఇన్‌ఫర్మే": 8470,
      "▁గుజరాత్": 8471,
      "▁Russia": 8472,
      "▁Education": 8473,
      "▁heredi": 8474,
      "▁Bombay": 8475,
      "▁Foreign": 8476,
      "▁Anthologies": 8477,
      "European": 8478,
      "-বিরোধী": 8479,
      "ట్రో": 8480,
      "ళ్ళ": 8481,
      "▁దిగువ": 8482,
      "▁yyyy": 8483,
      "▁(వెనుకటి": 8484,
      "▁মৌর্য": 8485,
      "▁কর্ণাটক": 8486,
      "▁কাবাডি": 8487,
      "▁অন্ধ্রপ্রদেশ": 8488,
      "▁অত্যন্ত": 8489,
      "▁పోర్చుగ": 8490,
      "▁তফসিলি": 8491,
      "▁এক্সচেঞ্জ": 8492,
      "▁కర్ణాటక": 8493,
      "▁క్యాలెండర్": 8494,
      "▁বিদ্রোহ": 8495,
      "▁మరాఠ": 8496,
      "▁మయన్మార్": 8497,
      "▁మిజో": 8498,
      "▁మలయాళం": 8499,
      "▁শ্বেত": 8500,
      "▁అమెరిక": 8501,
      "▁చూడండి": 8502,
      "▁রাসায়নিক": 8503,
      "▁జంబూ": 8504,
      "▁ইত্যাদি": 8505,
      "▁ইসরায়েল": 8506,
      "▁|পাতাসমূহ=": 8507,
      "▁|first1=": 8508,
      "▁|last2=": 8509,
      "▁తలసరి": 8510,
      "এসএলভি": 8511,
      "▁উপরাষ্ট্রপতি": 8512,
      "▁জনপরিসংখ্যান": 8513,
      "▁রবীন্দ্র": 8514,
      "▁Variation": 8515,
      "▁চুক্তি": 8516,
      "▁హిమాచల్": 8517,
      "▁శాసన": 8518,
      "▁ఎన్నిక": 8519,
      "▁মহারাষ্ট্র": 8520,
      "▁మొట్టమొదటి": 8521,
      "▁ইউরেশীয়": 8522,
      "▁বিচ্ছিন্ন": 8523,
      "▁গ্রীষ্ম": 8524,
      "▁ব্রিটানিকা": 8525,
      "▁మహాత్మా": 8526,
      "▁ప్రజాదరణ": 8527,
      "▁MacDonell": 8528,
      "▁సుల్తానులు": 8529,
      "▁Encyclopaedia": 8530,
      "▁এনসাইক্লোপিডিয়া": 8531,
      "▁ডেভেলপমেন্ট": 8532,
      "▁యునైటెడ్": 8533,
      "▁বঙ্গোপস": 8534,
      "▁వెబ్‌సైటు": 8535,
      "▁దినోత్సవం": 8536,
      "▁ఇన్‌ఫర్మేషన్": 8537,
      "-D": 8538,
      "/ar": 8539,
      "400": 8540,
      "4).": 8541,
      "://": 8542,
      "DA": 8543,
      "LA": 8544,
      "ball": 8545,
      "burg": 8546,
      "cast": 8547,
      "ded": 8548,
      "iel": 8549,
      "ivers": 8550,
      "let": 8551,
      "lesh": 8552,
      "▁‘": 8553,
      "▁id": 8554,
      "ales": 8555,
      "▁2nd": 8556,
      "tig": 8557,
      "orate": 8558,
      "▁those": 8559,
      "▁IUCN": 8560,
      "anda": 8561,
      "▁pat": 8562,
      "▁policy": 8563,
      "▁pages": 8564,
      "▁Sour": 8565,
      "▁summ": 8566,
      "▁Parliament": 8567,
      "▁came": 8568,
      "▁curr": 8569,
      "▁inequality": 8570,
      "ictor": 8571,
      "▁Mc": 8572,
      "▁Mang": 8573,
      "▁To": 8574,
      "rees": 8575,
      "▁five": 8576,
      "▁average": 8577,
      "▁Rog": 8578,
      "▁Dis": 8579,
      "▁Dut": 8580,
      "▁Direct": 8581,
      "ets": 8582,
      "le.": 8583,
      "lex": 8584,
      "▁Gond": 8585,
      "▁Ele": 8586,
      "▁Earliest": 8587,
      "iger": 8588,
      "▁dyn": 8589,
      "▁35": 8590,
      "▁300": 8591,
      "▁Foot": 8592,
      "▁Ocean": 8593,
      "ticlesh": 8594,
      "▁gram": 8595,
      "ow/": 8596,
      "2008": 8597,
      "▁Vi": 8598,
      "▁originally": 8599,
      "ably": 8600,
      "ished": 8601,
      "▁extin": 8602,
      "avi": 8603,
      "ine,": 8604,
      "▁(2005": 8605,
      "▁(2004).": 8606,
      "▁Industry": 8607,
      "▁Prot": 8608,
      "phere": 8609,
      "▁2009.": 8610,
      "▁Sea": 8611,
      "erves": 8612,
      "▁elect": 8613,
      "▁traditions": 8614,
      "ropical": 8615,
      "▁One": 8616,
      "thnic": 8617,
      "▁Rao": 8618,
      "▁Secret": 8619,
      "▁zone": 8620,
      "▁Himalayas": 8621,
      "▁http://": 8622,
      "times.com": 8623,
      "▁Contemporary": 8624,
      "ittee": 8625,
      "omestic": 8626,
      "▁Krishna": 8627,
      "▁हिन्दुस्तान": 8628,
      "▁size": 8629,
      "▁achiev": 8630,
      "▁Karnataka": 8631,
      "/articlesh": 8632,
      "/articleshow/": 8633,
      "\";": 8634,
      ".,": 8635,
      "/0": 8636,
      "/s": 8637,
      "32": 8638,
      "7–": 8639,
      "91": 8640,
      "j.": 8641,
      "kash": 8642,
      "oing": 8643,
      "pura": 8644,
      "rical": 8645,
      "vens": 8646,
      "°E": 8647,
      "°N": 8648,
      "▁(s": 8649,
      "▁216": 8650,
      "arter": 8651,
      "es:": 8652,
      "▁Ali,": 8653,
      "▁Coll": 8654,
      "▁Council": 8655,
      "atin": 8656,
      "atab": 8657,
      "▁portion": 8658,
      "▁Sc": 8659,
      "▁Shar": 8660,
      "▁Service": 8661,
      "▁song": 8662,
      "▁Pose": 8663,
      "▁Popular": 8664,
      "itter": 8665,
      "reement": 8666,
      "▁bitter": 8667,
      "▁Bot": 8668,
      "▁Rights": 8669,
      "etry": 8670,
      "etlands": 8671,
      "olar": 8672,
      "▁Hary": 8673,
      "▁Growth": 8674,
      "uls": 8675,
      "▁Ethnologue": 8676,
      "▁neg": 8677,
      "▁Latin": 8678,
      "econ": 8679,
      "▁F.;": 8680,
      "▁Fif": 8681,
      "▁Kip": 8682,
      "ity:": 8683,
      "▁ISSN": 8684,
      "ested": 8685,
      "anguage": 8686,
      "50–": 8687,
      "▁106": 8688,
      "▁79": 8689,
      "▁(2011": 8690,
      "▁dise": 8691,
      "▁68–": 8692,
      "261-": 8693,
      "▁conqu": 8694,
      "▁148": 8695,
      "▁Asia\"": 8696,
      "osts": 8697,
      "▁Independence": 8698,
      "▁region,": 8699,
      "agore": 8700,
      "▁claimed": 8701,
      "▁303": 8702,
      "▁305": 8703,
      "annada": 8704,
      "▁syn": 8705,
      "▁1947.": 8706,
      "489": 8707,
      "9-5": 8708,
      "▁Manorama": 8709,
      "▁therefore": 8710,
      "flic": 8711,
      "▁independent": 8712,
      "ositions": 8713,
      "▁Years": 8714,
      "▁impact": 8715,
      "▁Subcontinent": 8716,
      "▁additional": 8717,
      "▁Prakash": 8718,
      "▁14.2%": 8719,
      "▁Manipur": 8720,
      "▁Manipuri": 8721,
      "▁Techn": 8722,
      "▁Stevens": 8723,
      "▁proper": 8724,
      "▁community": 8725,
      "▁initiatives": 8726,
      "▁Recognised": 8727,
      "▁Non-Al": 8728,
      "▁79.8%": 8729,
      "▁Machine": 8730,
      "▁Wayback": 8731,
      "▁Telugu": 8732,
      "▁Ahmedabad": 8733,
      "▁Haryana": 8734,
      "▁disease": 8735,
      "▁conquest": 8736,
      "▁Non-Aligned": 8737,
      ",97": 8738,
      "-M": 8739,
      "/p": 8740,
      "Oxford": 8741,
      "TC": 8742,
      "af": 8743,
      "eu": 8744,
      "eated": 8745,
      "hl": 8746,
      "official": 8747,
      "pics": 8748,
      "tou": 8749,
      "tary": 8750,
      "uk": 8751,
      "uries": 8752,
      "vin": 8753,
      "vall": 8754,
      "yth": 8755,
      "–2": 8756,
      "▁ens": 8757,
      "▁qu": 8758,
      "▁educ": 8759,
      "eri": 8760,
      "▁21.": 8761,
      "▁Iran": 8762,
      "dives": 8763,
      "enc": 8764,
      "▁1200": 8765,
      "▁1000": 8766,
      "▁Intell": 8767,
      "edul": 8768,
      "istic": 8769,
      "▁Can": 8770,
      "▁penins": 8771,
      "▁Success": 8772,
      "tion,": 8773,
      "▁sit": 8774,
      "▁ste": 8775,
      "▁same": 8776,
      "▁sultanate": 8777,
      "▁sculp": 8778,
      "▁Per": 8779,
      "itt": 8780,
      "▁che": 8781,
      "▁inst": 8782,
      "▁tree": 8783,
      "▁trade": 8784,
      "▁Trade": 8785,
      "▁fem": 8786,
      "▁further": 8787,
      "▁bread": 8788,
      "enteenth": 8789,
      "▁BJP": 8790,
      "▁During": 8791,
      "▁Denn": 8792,
      "▁man": 8793,
      "▁much": 8794,
      "olution": 8795,
      "▁lower": 8796,
      "▁link": 8797,
      "▁later,": 8798,
      "isted": 8799,
      "▁Gre": 8800,
      "rain": 8801,
      "▁Eg": 8802,
      "▁Eighth": 8803,
      "ilt": 8804,
      "igence": 8805,
      "▁dev": 8806,
      "▁democracy": 8807,
      "▁dances": 8808,
      "ecu": 8809,
      "▁Freedom": 8810,
      "▁Flood": 8811,
      "▁Odi": 8812,
      "standard": 8813,
      "▁gr": 8814,
      "▁gar": 8815,
      "ump": 8816,
      "verse": 8817,
      "2003": 8818,
      "eworld": 8819,
      "▁Verlag": 8820,
      "▁rates": 8821,
      "▁what": 8822,
      "ry,": 8823,
      "▁(2015": 8824,
      "s.eu": 8825,
      "▁62": 8826,
      "▁ann": 8827,
      "even": 8828,
      "eventeenth": 8829,
      "▁held": 8830,
      "▁Struggle": 8831,
      "loth": 8832,
      "▁There": 8833,
      "▁Indones": 8834,
      "▁1965,": 8835,
      "issing": 8836,
      "▁prob": 8837,
      "▁change": 8838,
      "ricket": 8839,
      "▁centuries": 8840,
      "portant": 8841,
      "▁world\"": 8842,
      "▁worldstandard": 8843,
      "▁spread": 8844,
      "ibet": 8845,
      "son,": 8846,
      "▁Island": 8847,
      "▁Schedule": 8848,
      "industan": 8849,
      "▁Among": 8850,
      "-driving": 8851,
      "uisine": 8852,
      "aceu": 8853,
      "▁Euras": 8854,
      "▁2013)\"": 8855,
      "▁system,": 8856,
      "960": 8857,
      "▁\"History": 8858,
      "▁just": 8859,
      "▁result": 8860,
      "▁Oneworld": 8861,
      "▁humans": 8862,
      "natic": 8863,
      "▁independence": 8864,
      "▁Minority": 8865,
      "▁edition)": 8866,
      "▁Buddha": 8867,
      "harmaceu": 8868,
      "▁record": 8869,
      "▁Aravall": 8870,
      "▁\"List": 8871,
      "▁Maldives": 8872,
      "▁Maury": 8873,
      "▁medieval": 8874,
      "▁Desert": 8875,
      "▁Americana": 8876,
      "▁empire": 8877,
      "▁Black": 8878,
      "▁leading": 8879,
      "▁school": 8880,
      "▁right-driving": 8881,
      "▁(Seventeenth": 8882,
      "▁grew": 8883,
      "▁https://": 8884,
      "▁contribut": 8885,
      "▁(NIC)": 8886,
      "▁Carnatic": 8887,
      "▁indigenous": 8888,
      "▁birth": 8889,
      "▁legisl": 8890,
      "▁Australia": 8891,
      "▁Temple": 8892,
      "▁engineering": 8893,
      "▁small": 8894,
      "▁Princet": 8895,
      "▁Rowland": 8896,
      "▁village": 8897,
      "▁approxim": 8898,
      "▁painting": 8899,
      "▁significant": 8900,
      "▁Nicob": 8901,
      "▁Greek": 8902,
      "raglia": 8903,
      "touch": 8904,
      "▁Intelligence": 8905,
      "eduled": 8906,
      "▁Indonesia": 8907,
      "▁worldstandards.eu": 8908,
      "-अ": 8909,
      "GE": 8910,
      "Metcalf": 8911,
      "PA": 8912,
      "dar": 8913,
      "gement": 8914,
      "jec": 8915,
      "mill": 8916,
      "sb": 8917,
      "ंटे": 8918,
      "इल": 8919,
      "ईल": 8920,
      "एफ": 8921,
      "कल": 8922,
      "खन": 8923,
      "गी": 8924,
      "ग्र": 8925,
      "ग्व": 8926,
      "घर": 8927,
      "जं": 8928,
      "जों": 8929,
      "टान": 8930,
      "डम": 8931,
      "ण,": 8932,
      "णाली": 8933,
      "दय": 8934,
      "दिक": 8935,
      "दों": 8936,
      "द्रा": 8937,
      "दर्शन": 8938,
      "नि": 8939,
      "पाली": 8940,
      "फा": 8941,
      "बल": 8942,
      "भर": 8943,
      "भु": 8944,
      "माल": 8945,
      "ये": 8946,
      "यें": 8947,
      "यों": 8948,
      "रत": 8949,
      "रह": 8950,
      "रि": 8951,
      "रिया": 8952,
      "रक्ष": 8953,
      "लिक": 8954,
      "लका": 8955,
      "व्य": 8956,
      "विय": 8957,
      "वर्त": 8958,
      "शेष": 8959,
      "सर": 8960,
      "सों": 8961,
      "स्व": 8962,
      "स्वर": 8963,
      "ही": 8964,
      "ात": 8965,
      "ाह": 8966,
      "िख": 8967,
      "िष": 8968,
      "ीठ": 8969,
      "ुक": 8970,
      "ुट": 8971,
      "ुर्": 8972,
      "ुष्": 8973,
      "ेय": 8974,
      "ेव": 8975,
      "ेक्षा": 8976,
      "ॉकी": 8977,
      "ोत्त": 8978,
      "ौह": 8979,
      "्‍": 8980,
      "०,": 8981,
      "४०": 8982,
      "४७": 8983,
      "९.": 8984,
      "▁et": 8985,
      "an.": 8986,
      "onour": 8987,
      "▁कान": 8988,
      "▁कला": 8989,
      "▁क्रा": 8990,
      "▁क्यों": 8991,
      "▁किसी": 8992,
      "▁(B": 8993,
      "▁(U": 8994,
      "▁(15": 8995,
      "▁(अंग्रे": 8996,
      "alw": 8997,
      "alys": 8998,
      "orce": 8999,
      "archive": 9000,
      "diff": 9001,
      "▁सफल": 9002,
      "▁मत": 9003,
      "▁मिस": 9004,
      "▁मौर": 9005,
      "▁Are": 9006,
      "्रम": 9007,
      "्राम": 9008,
      "▁पास": 9009,
      "▁पोर्ट": 9010,
      "ator": 9011,
      "atan.": 9012,
      "▁portal": 9013,
      "▁princ": 9014,
      "▁Srin": 9015,
      "asion": 9016,
      "▁Pu": 9017,
      "▁Pre": 9018,
      "▁Pol": 9019,
      "▁हाल": 9020,
      "▁हवे": 9021,
      "▁हॉकी": 9022,
      "▁custom": 9023,
      "icon": 9024,
      "▁Min": 9025,
      "▁test": 9026,
      "▁\"U": 9027,
      "▁\"स": 9028,
      "▁अर्": 9029,
      "▁अति": 9030,
      "▁अने": 9031,
      "▁अक्त": 9032,
      "▁body": 9033,
      "▁brief": 9034,
      "ेंट": 9035,
      "riya": 9036,
      "▁Bro": 9037,
      "▁Brown": 9038,
      "▁में।": 9039,
      "▁Diversity": 9040,
      "▁जान": 9041,
      "▁जन्": 9042,
      "▁जमा": 9043,
      "▁जाने": 9044,
      "र्ग": 9045,
      "▁भारत-": 9046,
      "▁वित": 9047,
      "▁वृद्ध": 9048,
      "ानपान": 9049,
      "▁नर": 9050,
      "▁बे": 9051,
      "▁बडी": 9052,
      "▁दि": 9053,
      "▁द्र": 9054,
      "▁दाद": 9055,
      "▁दिव": 9056,
      "▁दर्जा": 9057,
      "▁दृश्य": 9058,
      "िकों": 9059,
      "या।": 9060,
      "▁Nor": 9061,
      "▁Number": 9062,
      "▁तनाव": 9063,
      "▁तरह": 9064,
      "्त्र": 9065,
      "▁toge": 9066,
      "▁Gro": 9067,
      "ulk": 9068,
      "eli": 9069,
      "▁प्रसि": 9070,
      "▁प्रवेश": 9071,
      "▁प्रणाली": 9072,
      "oph": 9073,
      "▁down": 9074,
      "▁domestic": 9075,
      "▁Water": 9076,
      "20-": 9077,
      "▁Old": 9078,
      "▁Kh": 9079,
      "▁आम": 9080,
      "▁आंध": 9081,
      "▁आयुक्त": 9082,
      "▁गै": 9083,
      "▁गान": 9084,
      "ित्र": 9085,
      "ित्व": 9086,
      "्षिक": 9087,
      "ालैंड": 9088,
      "▁कोलका": 9089,
      "▁उसे": 9090,
      "▁उष्ण": 9091,
      "▁उन्हें": 9092,
      "▁उदय": 9093,
      "▁ला": 9094,
      "▁लंब": 9095,
      "▁इसे": 9096,
      "▁इंट": 9097,
      "umph": 9098,
      "▁शक्ति": 9099,
      "▁शहरी": 9100,
      "ided": 9101,
      "▁विध": 9102,
      "▁विमान": 9103,
      "▁विरो": 9104,
      "▁एव": 9105,
      "▁|archive": 9106,
      "▁arts": 9107,
      "▁परिण": 9108,
      "▁परिव": 9109,
      "teg": 9110,
      "ubs": 9111,
      "िस्ट्र": 9112,
      "▁Char": 9113,
      "ंगाना": 9114,
      "▁राजा": 9115,
      "▁राजवंश": 9116,
      "osphere": 9117,
      "1-9": 9118,
      "▁Vij": 9119,
      "▁यहाँ": 9120,
      "▁run": 9121,
      "10.": 9122,
      "▁origin": 9123,
      "▁ची": 9124,
      "▁चेन्न": 9125,
      "▁साहित": 9126,
      "▁हैं:": 9127,
      "न्दी": 9128,
      "▁while": 9129,
      "▁beg": 9130,
      "▁पुन": 9131,
      "▁पुरु": 9132,
      "▁करती": 9133,
      "नेट": 9134,
      "▁नेहर": 9135,
      "▁नेपाल": 9136,
      "▁नेपाली": 9137,
      "स्कृतिक": 9138,
      "▁१७": 9139,
      "म्स": 9140,
      "▁1990": 9141,
      "▁1996": 9142,
      "▁तिब्ब": 9143,
      "▁68": 9144,
      "्ट्रेल": 9145,
      "्यात": 9146,
      "▁exper": 9147,
      "▁via": 9148,
      "aval": 9149,
      "▁पुराण": 9150,
      "कारी": 9151,
      "▁जापान": 9152,
      "ival": 9153,
      "▁इसका": 9154,
      "▁इसमें": 9155,
      "▁Standard": 9156,
      "▁होना": 9157,
      "▁भीमब": 9158,
      "▁राज्यसभा": 9159,
      "metic": 9160,
      "काज": 9161,
      "काश": 9162,
      "▁समृद्ध": 9163,
      "▁निम्": 9164,
      "▁निवास": 9165,
      "▁मुद्रा": 9166,
      "ंडल": 9167,
      "ज़ा": 9168,
      "लीवि": 9169,
      "▁क्षेत्रों": 9170,
      "▁धरो": 9171,
      "्रेणी": 9172,
      "▁फैली": 9173,
      "▁२४": 9174,
      "ामस्वर": 9175,
      "▁पूरा": 9176,
      "▁पूरे": 9177,
      "▁पूर्ण": 9178,
      "▁सरकारी": 9179,
      "▁Rediff": 9180,
      "ुरु": 9181,
      "itive": 9182,
      "▁adv": 9183,
      "▁मेघ": 9184,
      "formation": 9185,
      "▁प्रदेशों": 9186,
      "▁पाया": 9187,
      "▁पांड": 9188,
      "त्न": 9189,
      "▁Marath": 9190,
      "ेखा": 9191,
      "▁लिंग": 9192,
      "िरपेक्ष": 9193,
      "▁डी": 9194,
      "▁जिसने": 9195,
      "▁former": 9196,
      "सां": 9197,
      "▁Robert": 9198,
      "द्यालय": 9199,
      "▁किए": 9200,
      "▁consists": 9201,
      "▁उत्तर-पश्चिम": 9202,
      "▁गुफा": 9203,
      "▁Associ": 9204,
      "बंधीय": 9205,
      "ैनिक": 9206,
      "▁Shiv": 9207,
      "▁धर्मों": 9208,
      "▁others": 9209,
      "▁al.": 9210,
      "▁Sanskrit,": 9211,
      "िवेश": 9212,
      "िशा": 9213,
      "▁सूर्य": 9214,
      "▁उपयोग": 9215,
      "िपुरा": 9216,
      "िपीठ": 9217,
      "०००": 9218,
      "▁मैथि": 9219,
      "▁सामरिक": 9220,
      "▁निर्भर": 9221,
      "▁बढ़ने": 9222,
      "▁बढ़ती": 9223,
      "▁न्याय": 9224,
      "ज्ज": 9225,
      "▁ऊँची": 9226,
      "▁लोकप्र": 9227,
      "▁Online": 9228,
      "▁कार्यकाल": 9229,
      "ण्डल": 9230,
      "आई.": 9231,
      "▁रहा।": 9232,
      "▁विकासशील": 9233,
      "▁time,": 9234,
      "▁growing": 9235,
      "▁सक्रिय": 9236,
      "▁इंडोन": 9237,
      "▁मैदानी": 9238,
      "▁occasion": 9239,
      "एस.": 9240,
      "▁क्रय": 9241,
      "▁अवशेष": 9242,
      "▁संग्राम": 9243,
      "▁संसदीय": 9244,
      "▁सदन": 9245,
      "▁केन्द्रीय": 9246,
      "▁उनके": 9247,
      "▁उनकी": 9248,
      "▁संबंधों": 9249,
      "▁सूचना-विज्ञान": 9250,
      "▁SAGE": 9251,
      "▁Macmill": 9252,
      "ampion": 9253,
      "ential": 9254,
      "▁Monetary": 9255,
      "▁विभाजन": 9256,
      "▁played": 9257,
      "▁ईसाई": 9258,
      "▁२०११": 9259,
      "▁according": 9260,
      "▁सोविय": 9261,
      "▁below": 9262,
      "▁belief": 9263,
      "▁ज़िलों": 9264,
      "▁तेलंगाना": 9265,
      "▁स्थानीय": 9266,
      "▁Phil": 9267,
      "▁produced": 9268,
      "▁ऐतिहासिक": 9269,
      "▁सभी": 9270,
      "▁असमिया": 9271,
      "▁नागालैंड": 9272,
      "▁Northeast": 9273,
      "▁कामकाज": 9274,
      "▁प्रारम्भिक": 9275,
      "▁(4):": 9276,
      "ेटका": 9277,
      "▁मौसम": 9278,
      "▁भागी": 9279,
      "राष्ट्रीय": 9280,
      "▁जिन्हें": 9281,
      "▁सेवाओं": 9282,
      "▁२००४": 9283,
      "▁सदस्य": 9284,
      "▁सदस्यों": 9285,
      "▁परंपरागत": 9286,
      "▁Sanatan.": 9287,
      "▁disputed": 9288,
      "▁पहाड़ी": 9289,
      "▁अल्प": 9290,
      "▁बदल": 9291,
      "▁बैंक": 9292,
      "▁शक्तिपीठ": 9293,
      "▁Cinema": 9294,
      "▁sources": 9295,
      "▁continued": 9296,
      "▁टेलीवि": 9297,
      "▁जैसे": 9298,
      "▁नियंत्र": 9299,
      "▁त्रिपुरा": 9300,
      "स्थल": 9301,
      "▁उत्तराखण्ड": 9302,
      "▁वायुसेना": 9303,
      "टिबंधीय": 9304,
      "▁ढा": 9305,
      "▁सुरक्षा": 9306,
      "▁आयात": 9307,
      "▁खासी": 9308,
      "त्मक": 9309,
      "▁ईस्ट": 9310,
      "▁तेलुगू": 9311,
      "▁झारखंड": 9312,
      "▁इस्लाम": 9313,
      "▁Medieval": 9314,
      "▁Series": 9315,
      "▁मिश्र": 9316,
      "▁वार्षिक": 9317,
      "▁प्रत्येक": 9318,
      "▁इंदिरा": 9319,
      "▁फ्रांस": 9320,
      "▁कार्यालय,": 9321,
      "▁शुरुआत": 9322,
      "▁मलयालम": 9323,
      "▁हरियाणा": 9324,
      "▁मंत्रिमण्डल": 9325,
      "▁अरुणाचल": 9326,
      "ield": 9327,
      "▁extinct": 9328,
      "▁achievement": 9329,
      "ुष्क": 9330,
      "ोत्तर": 9331,
      "▁(अंग्रेज़ी": 9332,
      "alysis": 9333,
      "▁मौर्य": 9334,
      "▁हवेली": 9335,
      "▁अनेक": 9336,
      "▁अक्तूबर": 9337,
      "▁वृद्धि": 9338,
      "▁दादरा": 9339,
      "▁together": 9340,
      "▁आंध्र": 9341,
      "▁कोलकाता": 9342,
      "▁लंबे": 9343,
      "▁इंटर": 9344,
      "▁परिणामस्वर": 9345,
      "▁चेन्नई": 9346,
      "▁साहित्य": 9347,
      "▁पुरुष": 9348,
      "्ट्रेलिया": 9349,
      "▁भीमबेटका": 9350,
      "▁धरोहर": 9351,
      "▁लोकप्रिय": 9352,
      "▁इंडोनेशिया": 9353,
      "▁Macmillan": 9354,
      "▁सोवियत": 9355,
      "▁परिणामस्वरूप": 9356,
      "118": 9357,
      "405": 9358,
      "550": 9359,
      "68": 9360,
      "Coll": 9361,
      "Congress": 9362,
      "PP": 9363,
      "ient": 9364,
      "journal": 9365,
      "mer,": 9366,
      "oo": 9367,
      "ster": 9368,
      "worth": 9369,
      "anical": 9370,
      "iny": 9371,
      "onk": 9372,
      "▁(I": 9373,
      "▁(M": 9374,
      "tification": 9375,
      "▁147": 9376,
      "▁114": 9377,
      "▁11.": 9378,
      "▁Pyle": 9379,
      "icient": 9380,
      "▁Mart": 9381,
      "▁Tam": 9382,
      "▁Typ": 9383,
      "▁Tagore": 9384,
      "▁bur": 9385,
      "▁bot": 9386,
      "▁D.;": 9387,
      "▁).": 9388,
      "▁1956": 9389,
      "cher,": 9390,
      "▁ever": 9391,
      "▁harv": 9392,
      "▁374": 9393,
      "▁Jha,": 9394,
      "▁Wash": 9395,
      "▁Wetlands": 9396,
      "▁F.": 9397,
      "▁Konk": 9398,
      "ired": 9399,
      "imb": 9400,
      "imha": 9401,
      "1947": 9402,
      "akrish": 9403,
      "ew,": 9404,
      "505": 9405,
      "oung": 9406,
      "abind": 9407,
      "earing": 9408,
      "▁53": 9409,
      "▁57": 9410,
      "▁59": 9411,
      "▁Animals": 9412,
      "476": 9413,
      "▁83.": 9414,
      "266": 9415,
      "▁\"Th": 9416,
      "▁978-0-23": 9417,
      "inistry": 9418,
      "▁World's": 9419,
      "▁265–": 9420,
      "class": 9421,
      "ik;": 9422,
      "▁122": 9423,
      "▁123": 9424,
      "▁25%": 9425,
      "▁25.": 9426,
      "▁254": 9427,
      "look": 9428,
      "▁\"Introduction": 9429,
      "▁Reform": 9430,
      "▁China.": 9431,
      "▁1974": 9432,
      "▁1977": 9433,
      "▁\"India:": 9434,
      "2-1": 9435,
      "▁because": 9436,
      "543": 9437,
      "▁notation": 9438,
      "ervices": 9439,
      "▁1.7%": 9440,
      "▁1,210": 9441,
      "▁subcontinent\"": 9442,
      "▁2.3%": 9443,
      "745": 9444,
      "▁Harapp": 9445,
      "▁0.6": 9446,
      "▁0.7%": 9447,
      "▁0.4%": 9448,
      "▁\"Nar": 9449,
      "▁10.1080": 9450,
      "▁Kashmir,": 9451,
      "▁Perspec": 9452,
      "arajan,": 9453,
      "▁ix": 9454,
      "▁medium": 9455,
      "entieth": 9456,
      "▁War:": 9457,
      "▁works": 9458,
      "▁Publications.": 9459,
      "▁poetry": 9460,
      "▁fourth": 9461,
      "▁Karanth,": 9462,
      "▁Profile:": 9463,
      "▁Outlook": 9464,
      "▁considered": 9465,
      "▁Aksai": 9466,
      "▁Sangam": 9467,
      "▁HarperColl": 9468,
      "▁Golden": 9469,
      "▁(July": 9470,
      "▁northwestern": 9471,
      "▁Tritsch,": 9472,
      "▁55,000": 9473,
      "▁constitutes": 9474,
      "▁fastest": 9475,
      "existence": 9476,
      "▁Botanical": 9477,
      "economic": 9478,
      "▁Fifty": 9479,
      "▁burden": 9480,
      "▁Washing": 9481,
      "akrishn": 9482,
      "-B": 9483,
      "-n": 9484,
      "-t": 9485,
      "-le": 9486,
      "/9": 9487,
      "2).": 9488,
      "BI": 9489,
      "IF": 9490,
      "S1": 9491,
      "atic": 9492,
      "ahar": 9493,
      "ctive": 9494,
      "ez": 9495,
      "ead": 9496,
      "fied": 9497,
      "ked": 9498,
      "kim": 9499,
      "lic": 9500,
      "mary": 9501,
      "oist": 9502,
      "pen": 9503,
      "ty,": 9504,
      "▁ide": 9505,
      "aning": 9506,
      "onomet": 9507,
      "orter": 9508,
      "arch": 9509,
      "▁opp": 9510,
      "▁Ak": 9511,
      "▁CS1": 9512,
      "▁pe": 9513,
      "▁pil": 9514,
      "▁pred": 9515,
      "▁Sab": 9516,
      "▁S.;": 9517,
      "▁sc": 9518,
      "▁sl": 9519,
      "▁sing": 9520,
      "▁sist": 9521,
      "▁sex": 9522,
      "▁six": 9523,
      "▁Prac": 9524,
      "ita": 9525,
      "itted": 9526,
      "▁ca.": 9527,
      "▁could": 9528,
      "▁cultures": 9529,
      "▁inf": 9530,
      "omo": 9531,
      "▁Thar": 9532,
      "▁Tibet": 9533,
      "rew": 9534,
      "▁fact": 9535,
      "▁federal": 9536,
      "ents": 9537,
      "▁win": 9538,
      "▁Bib": 9539,
      "▁Bah": 9540,
      "▁Ri": 9541,
      "▁Dal": 9542,
      "leg": 9543,
      "leges": 9544,
      "olid": 9545,
      "▁Human": 9546,
      "cha": 9547,
      "▁lay": 9548,
      "ula": 9549,
      "▁econom": 9550,
      "▁L.": 9551,
      "▁det": 9552,
      "20).": 9553,
      "▁Kashm": 9554,
      "▁ret": 9555,
      "▁reli": 9556,
      "▁400": 9557,
      "▁great": 9558,
      "umer": 9559,
      "ateg": 9560,
      "▁articles": 9561,
      "teen": 9562,
      "owing": 9563,
      "▁Architecture": 9564,
      "eport": 9565,
      "utra": 9566,
      "ogam": 9567,
      "ables": 9568,
      "▁(2020).": 9569,
      "▁dish": 9570,
      "▁1993": 9571,
      "▁85": 9572,
      "▁6,": 9573,
      "ghts": 9574,
      "▁animal": 9575,
      "▁Energy": 9576,
      "▁examp": 9577,
      "▁execu": 9578,
      "avour": 9579,
      "illed": 9580,
      "ively": 9581,
      "▁Southeast": 9582,
      "▁1500": 9583,
      "-05": 9584,
      "cip": 9585,
      "▁CITEREFL": 9586,
      "o-operation": 9587,
      "▁China,": 9588,
      "▁231": 9589,
      "▁level": 9590,
      "▁Marri": 9591,
      "efence": 9592,
      "▁formed": 9593,
      "2-9": 9594,
      "anted": 9595,
      "▁1987": 9596,
      "▁rights": 9597,
      "▁declar": 9598,
      "▁Force": 9599,
      "▁numbers": 9600,
      "▁important": 9601,
      "▁enact": 9602,
      "▁Climate": 9603,
      "▁Routledge.": 9604,
      "▁Indo-G": 9605,
      "▁Bhut": 9606,
      "▁supp": 9607,
      "ities:": 9608,
      "▁endem": 9609,
      "▁endangered": 9610,
      "407": 9611,
      "▁meth": 9612,
      "▁industry": 9613,
      "▁Agency": 9614,
      "▁Minorities": 9615,
      "▁50th": 9616,
      "▁colleges": 9617,
      "▁Hindustan": 9618,
      "▁\"Ethnologue": 9619,
      "▁mathematics": 9620,
      "▁mathematical": 9621,
      "▁Sikkim": 9622,
      "▁\"Report": 9623,
      "▁Urban": 9624,
      "▁religions": 9625,
      "rigonomet": 9626,
      "▁Studies": 9627,
      "▁elections": 9628,
      "▁Sharma": 9629,
      "▁geographical": 9630,
      "▁ago,": 9631,
      "▁like": 9632,
      "▁practices": 9633,
      "▁created": 9634,
      "▁built": 9635,
      "▁liber": 9636,
      "▁employed": 9637,
      "▁influenced": 9638,
      "▁maint:": 9639,
      "▁Nepal": 9640,
      "▁transmitted": 9641,
      "▁veget": 9642,
      "▁Lanka": 9643,
      "▁Kathak": 9644,
      "▁978-1-317": 9645,
      "▁(2008).": 9646,
      "▁character": 9647,
      "▁Myanmar": 9648,
      "▁fundamental": 9649,
      "▁minorities:": 9650,
      "▁largely": 9651,
      "▁Wiley": 9652,
      "▁kingdoms": 9653,
      "▁purpos": 9654,
      "▁hereditary": 9655,
      "▁(2005).": 9656,
      "▁education": 9657,
      "▁peninsular": 9658,
      "▁Egyp": 9659,
      "▁(2015).": 9660,
      "harmaceutical": 9661,
      "▁approximately": 9662,
      "▁Nicobar": 9663,
      "▁Sabha": 9664,
      "▁Kashmiri": 9665,
      "-C": 9666,
      "-W": 9667,
      "-re": 9668,
      "-33": 9669,
      "-India": 9670,
      ".T": 9671,
      "300": 9672,
      "415": 9673,
      "517": 9674,
      "88": 9675,
      "IS": 9676,
      "aid": 9677,
      "cology": 9678,
      "e;": 9679,
      "etic": 9680,
      "hind": 9681,
      "ition": 9682,
      "ji": 9683,
      "national": 9684,
      "pite": 9685,
[...]
